10001110110
1111111010111011
110011110
1111110111111101
100110110
1111111011110011
101100110
1101011
1111111110011001
1111110111000111
10110
1111110100110010
1111111010000000
11011011
10010000
1111111000000110
1001100100
1111111110001011
1111111101111010
1111111000001010
111111001
100011011
100001110
1111111110101101
1100111110
1110110
1111101111110110
1111110001100101
1111110111010111
1111111110010100
100010000
1001110
1111110101011011
1100011
1101001011
1011111010
1111111011110101
111100111
1111111100110101
110101
110110111
1111110110100111
1111110110011001
1111111110111100
1111111110111001
110001001
110111101
1010110110
1111111010100010
110110
1111100101
10111
111010011
1111111001011110
1000100011
110000001
1111111110000010
1111111000011101
100111111
1111110111001110
1111110011000101
1111111010101000
1111111100110110
110
1000000100
1111111100011111
1111111000001000
1001101
1111110110100010
10100101
101001010
111101100
1111101110000111
1111111111011000
1111111010111000
1101100110
10100010
1111110011101101
1111110101111010
1100001
110011000
1000110001
111001000
100111010
1111111111110110
1111110010100000
1111111100110101
1111110010011000
11101100
1000010
1111111000100111
1111110001010100
10101110
110011111
1111111001001011
1100010101
1111111101101001
101100100
1111111001001010
1111111010110110
1111111011011111
1111110001000100
1111111000011001
1111101111110111
1111111101110110
10010111
1111110100000111
110100110
111011111
1111101
110101100
1111111010011001
111001
1111111101010011
11100010
1111101101111001
1111111111010011
1111111001110101
1000100
1100010111
111101110
10001111
1111111000101110
10110010000
1001101111
1010001000
1111110010000001
1111110111101010
1111100101101110
1111101001010010
1111100110000011
1111101101101000
1111101100110001
1111110010101111
1111110101011001
1111110100011110
1111111010000111
1111111111111100
1111110001011100
1111110001101101
10110
1111110100111001
1010111110
1000000110
1111111000001101
1111110111111101
1000001100
1111110011100111
1111110100
1110001011
10111
1111111001001101
1111111011100110
11100100
1111110100101101
1111101101001100
1111010011011101
1111011010011000
1111011010111011
1111110100001001
1111101110011111
1111111001101101
1111111001010101
1111111011010111
1111110100010101
1111111011001011
1111111010010010
1111111011000011
1111111011000011
1111110110011111
101000011
1100011000
1111111110000110
1111111010101100
1111101100100100
1111101110111100
1111110010000001
1000101
1111110111101100
100011011
111000101
101100100100
101011000001
101001001011
10110000101
11000011011
110011011
1010110101
1111110110110010
1111101111100010
1111100000101101
1111110010101100
1111101000010101
1111111000001000
1111111111111001
110011001
1010001100
1010000101
10011101011
110100010
100101101
10000010110
1111110000001000
1111101111011001
1111111000100101
1110100100
11001001100
10111101011
110000001010
101011011011
1000010111010
110001010101
101111001010
101100110011
100011100100
10000111001
10010011110
1111001001
1111100011001000
1111110011000010
11101000
1111110011000100
1111000
1111110100111110
10110001010
1001011000
101000011
1111111110110001
1111101100000101
1111111111010100
1111011
1111110010110001
1110111010
11000110011
1011110101
11010000101
10000000001
110111001100
111111101001
1000011110010
111000001001
11001011101
11110010111
111011010
10001000
1111111111110101
1001111010
1111110101111011
110010010
111010
1111110001011001
100110101
11010111
1111111111000110
101011
1111111000001011
1111111010001100
1111111110001001
100100111
1111111010111110
1111111101000100
101010100
10010111100
11110010001
11001000000
101101011001
111111110011
100110100101
11001000
1111111000111111
110010101
1010001010
1111110011111110
11001011
1111111010011101
10100110
1111110001000000
1111111110100000
1010001111
1111110111000100
1111110000100110
1000110101
100110110
1111111111010110
10000100000
1111111
1000001110
1001011001
100000001
1000001101
1111111011011110
1111110111111111
1111100111100111
11101000010
101111101101
101011100
1111110100101100
1111101111111010
1010001011
1010000100
1110000000
1100010101
1011111010
1100011110
1111111100110111
1100100011
1011110
10000001011
10000111000
1111101111110101
1111111111111000
1111111011001010
1111111101011110
1011010111
10000000010
1111110111111100
1111111110000001
1111110101110010
1111101111100000
1111110000011001
1111101101101110
1111111000010100
10000100011
1111101100010010
110111011
110001111
1010100010
1111111001011101
1111000100
11001001
1011111100
11011110
1000100001
100001000
1001011111
111000000
1111110001110111
1111111110111100
1111111111111111
110010010
1111110011110001
110001100
10001111111
1111110111011111
1111111001011000
1111111111111000
1111101111011101
1111011100110010
1111000101110111
1111011100010011
1100110100
100101
1111110010010111
1011000001
11010000
101010101
1101110001
1011111001
11110100
10000011101
11101110
111011010
1111111001111100
1111111011100111
110110110
1111111110110111
1111111111110100
101111
10001111
1111111110010110
1111110010100011
1111110010111110
1111110001111100
1111101111000000
1111101111110101
1111010111000111
1111100100010111
1111111101011011
1100011000
1111111111011111
1100010
1111111101011111
100100000
1001111011
10001001011
1111111111111101
1111111000011100
1111110110011001
110000
11101101
110010011
1111111000100011
101110111
1111101001101101
1111101110100010
101101101
11011
1111101011000101
1111111111110001
1111101110011110
1111110101111001
1111101110011100
1111100011100010
1111100010111101
1111100101001000
110001111
1111111011100100
1111111000001101
1111111111000010
1111101111010010
1000111
1111110001111100
1111110110000110
1111101000010111
1111111100111001
1111110101110001
10010000
1111111001001111
1000100010
111001001
1111110100111100
1111110111010010
1111111101000010
1111101111101011
1111101111101101
1111100011001010
1111101010100001
1111110111011010
1111101000010011
1111101000001101
1111101100110001
1111111011001111
1111111010011011
1111101010010101
1111101001110100
1101111
1111110100101011
1100010
1111111100100101
1111101011000010
1111100111010010
1111100110111111
1111101100010011
1111110111010011
110010111
1111111010101010
1111111010001101
110111001
100011
100110100
101111010
11001010
1111111111000101
1111
1111101110101000
1111100111111000
1111110000101111
1111110010011010
1000110101
1111111100101001
1111111111011010
1111110001101010
1111100101000110
1111111001111010
1111101110010001
1111110010001001
1111110100001111
1111101010101011
11011010
1111110101110110
1111111100011000
1111110001001111
1111111101110100
1111111100110100
1111110000001010
1111111101100010
1111110000101111
1111111001101111
10101
1111100
1111111010110110
1111110111011101
1111111111101000
1111101010100001
1111111011100101
1000100011
1111111001011011
1111111010000010
1111111100010001
1111101110111101
1111110010100001
1111101101000010
1111111010110111
1111111011101100
1111110110100110
1111110001101111
1111111000000100
1111111110111100
110011
1111110000101011
10100100
1101101001
111111110
101000
110111101
101111000
1111111011100010
1111111001110011
1111111101000111
1111111111010100
1111111011010001
1111111110100011
10101100
1111111001111001
101101000
1111111100111000
1111110110010000
1111111111011101
1111111110111011
1111110011110100
1111110000001001
1111111001100010
1111111011001110
1000101110
1001111
11000011
1010011111
101000101
10000010
1000100001
100000000
1110011
111111101
1111111011101110
1111110110100011
1111111101011011
100000100
1101000011
100000010
1101100100
110011111
1111110111100100
1111111000001001
1111110111110100
1111111011011011
1111110110101101
1111111010100101
1111101101000000
1111111000001001
1111111010001000
1111110111100110
1111111010101111
1000011010
1110011001
1001010111
1100011101
1111111100111111
1111111001110010
111010011
1111111011000100
1111110101000110
111000101
1111111011001011
101111001
111100000
110000011
1010011110
1111111110110110
1000001000
1111111110110110
1111111001100111
1111111111110101
1111110001111111
1111111110110110
1111111110110111
1111110100100000
1111111100001001
1111110110111110
1111110010101000
1100001111
1111111110111100
110001111
1100101100
10010011
1111111101100001
1001001001
1111110110000010
1111111000000101
111001011
1111111111101010
1111110010011001
1111111001111000
1111111111100011
111001
1111111111110111
111111110
1111110101001101
1111110110010110
110101110
1111101001011111
1111101111111101
1111110100011111
1111111111100100
1111111010000111
1111111001100110
10100
110
1111111000110101
1000111011
1111111100110110
1010011011
1100111010
1111000110
11010001
100101001
1111110011001000
10111111
100000010
100111100
100111
1111111111010011
1111110110000001
1110111100
101011101
100101100
1111101100
1111111101011000
1111111011100001
1111110110100101
1110100
1111111100110101
1111110001011011
1111101111101001
1111111101001000
1111111110010100
1111110001110101
100101010
1111111101100100
110110111
1110011101
100
1111110111001000
1111110101111011
1010101011
101001010
100011110
1111111100100000
1111110101100001
1001110111
1111101101010101
111100101
1011001010
10111010
101111001
10010001101
1111110100111000
10010000100
1000000111
1111111101110111
101001000
101100101
1111110011000010
1111110110111100
1111101110100010
1000111101
11010100
10101001010
1111111011001110
101110010
1100111101
110101100
110010110
1111111111101001
10101111
1111111101001100
101010110
1111110100010100
10110
1111111111100110
1111111110001101
10000110101
11111110100
10000110100
10000100101
100100100010
10100000
1100101000
111110000
1010010101
10110101001
11101010000
1101100010
10000001110
1010010001
1111110100000000
1101010101
1111111001111011
1111110111010010
100001000
1111111010101011
11011011
10110011
1111110111011100
111011111
1101110110
1111111100101111
1111111101001000
101110001
11000101111
10100001011
110000001000
11110010111
1011011101
11111000100
1000001111
1111001111
10001010000
100101001010
1110011111
10011011101
1000000110
1111111000010011
1111111101000000
1111111010110010
100110111
1111110100001101
1001110111
1111110101001100
1111111110111111
1111111011011110
1111101100101010
1110100101
101000011
10101110
10111110
1111111011000100
10010011
1101000001
1001000010
100011100
1011000010
1100001110
11010001011
11110110111
11011110101
1001101011
1001001111
10001001100
1001110010
11101000
1010010011
1111110101101110
1001001101
1010001100
10111111
11011
1111110011001110
1111110100111011
1111111111011011
1111110010010001
1111110101110101
1111110010110001
1111111110101100
1111111100110010
1110011
1111110101111101
101010000
1001110
1111111111111010
1111111010000100
10111111101
1100001010
1111111111011000
1000000111
1111110111110100
110100100
110
1111111100011001
111
11000001
110010010
110010101
100011111
1111001000
