1111111100011110
1000001
1111111011010000
1111110011011111
1010010100
1111110010100100
1111111000001101
1111111111000000
110100111
1111110110100110
10111110
1111111100110011
1111111010000101
1111111000100111
11001001
1111110100011011
1111110111111100
1111111011011100
100000100
1111111101001010
1111100101
1000
110100010
1000010000
1111110001100000
1011111011
1111111101000010
1011101010
111011100
100100011
10011101
1111111101011011
1010101
1000001110
101000000
10011000
11111
1111101101010011
11110100
1010010110
1111110010000010
1111110011001110
1111111000011010
1111111010101111
10011
1111111011100101
1110111
1111111101011010
1111111100111101
110
1000111110
1111111101100001
1111111111010011
11000010
1111111111001010
1111111111001010
1111110111000001
1101111
110101011
1111110010001001
100111110
1001000000
1111111110101111
111000010
1111111001000010
110000001
1011
1111111101000010
11111011
1111111101100110
1111101111111000
1111110101101110
1111101100100101
1111101110111001
111000
11010000
1111111011110000
1111101011110101
111100001
11
1000011101
1111111001011000
1111000111
1000110110
1111111101010010
1111111100011110
1110
110100111
11101010
100110000
100100001
1111110100100000
1111000
1111111100010000
1111110011011110
1111111011000110
1111110000101011
1111101000000000
1111111000110101
1111110110010100
1111110110100110
1111110010001110
1111110100000110
1111101000110100
1111111001010010
1111111111001110
1111111110100011
1010101
10000000
1111111010000010
1000011100
1111111010001011
110100101
1111111110010001
101010010
10010110
1111110111101001
1111111110000001
11001111
1111110010100000
1111110101001001
1111110101011010
1111101001100101
1111110000001111
1111111111101100
1111110000011101
1111111101010111
1111110001111111
1111111101000010
111110
101100000
1111111100111101
1111111110101000
1111101110110000
1111101111100011
11100101
110010110
1111111101000000
1101101110
10011010
1111111110111100
1111111010010101
100110
1110111000
1111110001101011
1111111100100000
1111110100111011
1111110001111000
1111110100010011
1111111011111010
1111111011111001
1111111110100110
1111111011101010
1111111011101010
1111111010101010
10001011
1000010000
100000010000
1010111000
1111111101001010
111110100
1111111101011111
10000011100
1100010
1111111100011110
10100101
1111111001100011
1111111111011011
111000110
1111111111011111
1111110010110000
1111111101011010
1111101011110111
1111111111000101
1111111110011100
1111101110011110
1111110111010001
11001011
1111111011000000
1111111001100001
110010010
1111111101101111
1111111001011110
1111111111011000
1011100001
1110001
110100000
10111100000
10100011100
10000001010
1100101001
10000100011
1111111000
1111111111110100
1111111011011011
1111111010101110
1101111010
100001101
1111111010001101
1111110100101001
1111111110101111
1111110000101010
10010000
1111111000011000
1111110111100101
1111111001010001
1100010100
110000001
110100110
1101110
100110101
101011010
10011011
1101010011
1110001111
101010111
1000000100
10111100110
11111110100
10001100000
1011100001
101100011
1010110001
10001000110
101101101
1010001111
1111111100011101
1111101110100111
10000
1101101
1111110100101110
1111100
1011111111
1100110
10001010110
101111010
110001100
11111
1111110111010010
1111111011011111
1111110101101010
101010000
1100010111
1011100111
1101010010
10010001001
10110001010
11010101011
10100001001
10001100010
1001100001
111111010
1111111001101111
1110000
100101000
101110100
1001001100
1111111001100111
11101110
10010100110
10001010110
101001100000
10110010001
11000111111
1010101010
1111111010000010
1111110010010000
1111011000111010
1111101101000000
1111110100011111
1111111010111011
10011110100
10010111101
11001010010
100110100000
1111111011
1111110010
1011011101
11000000
11010
1111111010101100
10001111001
101100001
1001001100
1001111111
11111101
1111111001110110
10000100110
100110100110
11001111000
11000111010
11000111101
11100001
1111110011001001
1111100110001010
1111100011110111
1111101101011111
10001010
10010100101
1111111010101010
101111111
11100111010
100100011000
1011111001
111100001
1010101000
1111111001100101
1111111000000110
1111111001001110
1111110111010011
1111111000111110
101111100
1111111011000011
1111111100110100
1111111111100000
1001010001
10111110011
10000110101
110101011
11111100
1110011
1111111100010101
1111111010110010
1111111101011000
1111110011111011
1011101
1111110001010100
1111110000001010
111100
10000110000
10011101
10101100
11010011
1100111111
110011001
1001110011
1010011
11111111
1111111010001100
1001010101
100100011
100010100
1010101101
1001000001
1001010111
1111101110100011
110110001
11001111
10100101001
1011100010
1111111010100011
1111101010110100
1111101101000100
1111100011000001
1111110001111110
101110101
1111011011
1111111011101100
1111111101101100
10010110
100101
1111110101100111
10
1001010101
10010010111
101101110
111100000
1111111000001101
10100111110
1111110100110101
1100001
1100001
100010001
101010011
110111110
1100011100
1001100110
1111111111010110
1111110111111110
1111101110110111
1111101000011101
11001011
1110011101
10111000110
110111110
1001011111
1111110110011101
101101
100011011
1101101
11101100
1011010
10000010
1011111
111111001
1110011101
11100101
1011101
1100000100
1111111011111111
1000101101
1111111110111101
1111111101100001
1101000001
1100001110
1111111001000111
1111110010001000
1111110100000000
1111110110110101
10001100100
111010111
1101010110
1100011111
111101110
111101010
1111110101001100
100001011
100011110
1111110001
101010001
110101
1111111111010000
1111110010110101
1111110011010011
1111111100101001
1011001010
1010111111
1001100011
100110011
1111110100001010
10001100010
1001111101
1111110100111100
1111110110100010
1111100101001011
1111111000110110
1111110100010001
1111110010101111
1101111111
11001101
1111111000100100
1111111110011010
1111111010011011
1111110111011100
1111111100111100
1111111000100001
101011110
11001110
110011
1111111101000011
10000010001
11111100
1101111011
100110011
1111111110001111
101111100
1111111010010010
10010
1111111111101100
1111111000001100
1111111101100010
1111111111001100
110101000
100110110
111110011
10010011110
101111001
1001001010
11110
1111110001010000
1111111000001010
100010011
11011100
1100110111
10101101
1111111001101110
1000
1111111111110101
111110110
1111111110100111
10001000
1110010100
10000111001
11000110
1111101
1111111010000011
1111110100100011
1111110100011001
1111101111111111
1111110111100011
1111111101001100
101111111
1001010110
1100011010
1111110011101000
10000011
1111111110000011
1111111001101101
1111111010110011
101110
1111110110100101
1011101011
1111110111001110
1000110101
1111111111100101
1111111100010110
1111111011110101
1001011011
1111101110111001
1010000111
1111110111
11101100111
110101
1101010000
1111101110000110
1111101100011110
1111110101001001
100011110
1000100110
101101111
1111110101001011
1111110101010011
1001001001
1111111010101101
110101001
1111111110111111
1111111001000100
1111111100000100
1111111011101101
1111110001100100
1111110011001111
1111110111101010
101011101
1111110100101111
11100
1100010
1111111011001001
11100010100
10011011001
10100001101
1011111011
10110111
10100000
1100111
1111110111111000
1111111100110110
11011100
1111111001101011
1111110110001110
1111110001011010
1111110011000100
1111101100010100
1111101100011011
1111110011101001
1111111101110001
11110010
1111101010000010
1111111000101000
1111111100100000
1111110000100011
1000101011
1111111110010011
10000011111
1111111111111110
100100100
1001100010
1011010110
10000011
1111111001101011
1111111011110000
11110010
1010111100
1011100
1111111011110110
1111101101110010
1111110110001011
1111111100111000
1111110011111110
1111111001111010
1111111111000000
1111111100000111
1111101011110010
10110101
110101110
1101101
1111111101101011
1111111100011011
1111111011101000
1011011101
1000010110
1111111110100100
111011110
1111110001010100
10010110
1001100010
10011000011
11010000
101000101
110011111
1010000001
11100111
10100100
1001100100
1111110110010010
1111111001000001
1111111100111110
1111110010000000
1111110100001010
1111111111111100
1011010100
1101000100
1101
1000011100
1111110111000110
111100011
1111111110001101
111
11100111
1100110
1111111110100010
1111110001000011
101100110
10100001
101011000
11110101
1111111111001001
110111010
1101111001
10011010100
1111111111000000
1111111101111101
11000101
110000
1111111100110000
1111110111101110
1111111011000000
1011001
1000111010
1111111100011001
110100010
1111111000101010
1111111101110100
1111111011001001
110011
1111111001011110
1111111111100111
10101010
1111111110100011
1001010
1000000101
1111110100000010
1111110100100010
10100111101
11010011
10100110
1111111111011011
10001010101
1011011
10010010101
1111101001
1111111101001000
1111111010101010
1111110100111001
1111111010001000
110001
11011100
1011010001
1111110110001101
1000011011
1101101111
1111111100111101
1011010
1010111
1111111011111000
10110011
1111111101011100
1110101010
1111111000011011
1111101101001101
1111110010110101
1111111011111100
1111111101100111
1011111
1111110110100110
111111011
10111000010
10101000
10111
1111111100100110
1111110100111000
101001
1111110100101010
1111111100000001
1111101110000011
1111110111010101
100000111
11100100
10011111
101100101
1000010100
1111011
101001001
1000100100
1111110101111101
111111011
1111111101100111
1001111011
1111110100101001
1111000
1111111110100110
1111110110101010
1111111101000010
10110000
1111110111001111
1111111010000100
1111110101000110
1111110110000101
1111101001011001
1111111000011100
1111110110100001
10000001
1111111110011101
1111111100001111
1001111011
1111110110100110
101101001
1111111101111110
1111111101010011
1111111100011101
1111101101100100
1010011110
1111110100110100
1111111101000101
111111010
1111110110010101
1011110010
1111111100110100
1111111110001110
1111110111100001
1111111101110011
1111111111000101
1111110110100011
1111110111100001
1111110100100000
1111110001111111
1111110011011101
1111110101100011
1111111010001000
1111111111011101
11101010
10010111
110100111
1111111101110110
1111111110011011
1111110100001101
11001000
1111110011101110
1011100
1111110110111011
1111111100111011
1111110101111011
1111110011011110
1111111000110001
10010010
111001
1111111000011011
1111101100000000
100111101
1111111001110100
1000110011
1111110111110110
1111111110110111
1111111001101111
1111111101110111
1111111111110010
10100001
100000111
1111111000010000
1111110111111101
11010001
1111111100101101
110010
1111111110011111
11000101
