1111111110000011
1010101
1001110100
1100000
1111110001011100
11110
1111111100100101
101100
110000101
1111111110110100
1111110010011100
100100101
1010111000
1111111110010010
11000001
1111111111001100
1111111011100100
1001101100
1111110100010101
1010011
1111111100101111
10100101110
1010011010
1111111000111011
1100000000
100001010
100010100
110101001
1111111111011010
1111111110110110
1111111000101100
1111111111100101
1111110100010011
100110100
1111101010000000
1000111110
110100001
101011
1101000
1111111111110010
1111111110111101
1111110111000010
101000010
110110110
1111111110011111
1111111010011111
100100001
10100001
10110011
1111111001010111
1111111101111011
1111110011010001
1010011111
100010001
1111110010000110
111001
1111110011001110
11010010
1111111110110101
110100
1100100100
1111111011100011
101101110
1111101101110001
110110111
1111110011111111
1111110111110000
1111111100111101
10001010
1111111000101101
111111011
110011011
1111101111101001
1111111101110111
111011011
1111111110001111
10110
100001110
100001111
110011100
1111110110111001
101100
111000001
10110010
1111111000110111
1100111
1001100100
101001011
1111111110001000
11101001
11011000
1111111100011111
10111111
1111111101001110
1011000
1111110110011111
1111111110010100
1111111011010100
1111110101010000
10010010010
1111110110110010
1101100
11000010011
10101100000
1111111111101100
1111111110110011
11010101
1111110111111111
1001001110
1000011001
110011101
1111110010110111
1000011110
1111110100110100
1010000110
1100010111
1111110100111101
1111111000101101
1111110111101000
10010000
1111001
1111111110010100
1111111000011001
11010
100111101
1111111001100010
1111111001011101
1111111000101100
1111110101111001
10101101
100011110
10010010101
1010101000
1111111110110100
110110101
110110011
11110010
11100110
1111110101001001
1111111001100001
100111
1111111011010001
100000100
11110
1111111000100001
100100101
11001001
1111110011000000
1111111100111100
1111101110010000
11011
1111110011111111
1111101111011000
1111101110000100
1111110010011111
1111110000100100
1111011101000111
1111110110001111
1111101011000000
1111110000101001
1111101001011000
10010111
110110001
10100100
1111111000000000
1111111000111001
1111111011100101
10001001001
1111110010010010
1000000010
1100011001
1000111010
111110010
110110110
1111110100101011
1111111101111011
10011011
1111110101111110
11110111
1111110111111111
1111110110000111
1111110100001011
1111110010101011
1111110010000010
1111111001001111
1111110100010110
1111110110100111
1111110100100001
1111101110111100
1111111011110000
1111111001010111
1001110111
1111110110101001
111011
11000000
1111110111001001
111000010
111001011
1111110111110000
1111111101111010
1111111101001101
100110
1111111001110110
1000010110
10100100
1111111111100000
1111110111001011
1111111001011010
1111110101001010
1111110111001011
1111110101000111
1011110
1111101
1111111000100000
1111110000100100
1111110110011100
1111111100010011
1111101111000111
1111101110011010
1111110110010000
1111111110100101
1111110100111100
1111110010110011
1010100011
1111111000111111
1000101
1100001111
100101100
11110000
1111111111100100
1111110110100001
1111111011110010
100000000
1111110111010101
10001110000
101100
101000111
1111110110000001
1111111110001100
1111111110001000
1111111101100001
1111110111111011
1111111111100010
1111111001111110
1111101111100101
1111110011111110
1111110101110100
1111110000111100
1111100011010101
1101111
1001011110
100000010
10001101
1001111
1010111
10110110001
1111111101000001
100100111
1111111000101100
1111110110001010
1110001
1111111110011011
101110010
1111111010111010
1111111001101010
1111111001010100
1111110000001110
110010
1111110100010011
1110001
101101111
1111111001101001
1111111100001000
1111111100101001
1111110110101000
1111100000010111
1111111000101101
1111111011111111
1111111000010100
111111
1010001000
10111110101
101101001
1111110000001001
1111111101101110
1111111001011100
1001001010
101011001
1100111100
110111000
100111100
101101101
100011010
1111110001111011
1111100100111000
1111111111000011
110110111
1111110011100100
1111111000110001
1111111111110110
1000010101
1111111000010010
1111111100001000
1111110110101011
1111110000111001
1111111101111100
1111110000010010
10110001
1111111100011011
1001111110
1101001100
1111111101000001
10011110
1101101001
1100100
1010101
11010000
1111000001
10001011100
1010100000
10101000111
1111110110000100
1111100010110000
1111111111100011
11001010100
1001111111
1001110000
100010010
11111100
1011011110
1111111000101110
1111111100010000
1111111111111010
1111110101011010
10001100
10000111
1111111110110101
1111111110001000
100110010
1001000101
1000001011
1111110110101000
10101011000
10000100010
11101110
10110010
1000110101
1000000110
1111111001011110
1111011101110100
1111011101101110
10000011010
1110101111
11011110111
1101001111
1101110011
10100001100
1000110010
110010100
1111110111111100
110100010
1111111100000110
1111110101111010
1111111110111010
1111111100101010
1111111000101011
110011101
100101
110001101
11110111110
1110001011
10000101110
1110101000
11001100
1101100010
1000100100
1111100001100100
1111011001111010
1111110100101100
11000110100
11010110000
10111000010
1001110111
1011011110
10011011000
1011010110
100001010
1111111010010110
1111111011101100
1110110101
1111101100
1111111000101001
1111111000011011
1111111001011010
1111111011100100
1111111010101000
1010000
100000000
1100010110
1101000001
1010010101
1111111100001101
1001110011
1111110110111001
1111100000110110
1111100110111000
1111111101000111
1100001010
1011101100
10110010100
1000101011
1001011110
10000001110
10100101100
101100101
1111111111101011
1111111101001001
1111111010110110
1010010
11100011
1111111111001111
1111111000101101
1111111111000011
1010
101110100
111100011
110110000
10000100001
1111111101001001
1111111111011100
111011101
1111110101100110
1111101001100100
1111100011010011
110111110
10110110000
1000011111
10110011011
10111010001
101101011
1011000010
1111111101011001
11000011001
1111101100111010
100001101
1011001001
10111001
1111101100000111
1111111010100100
1111101110000111
1111110100001100
1111110000010110
1111111011001001
1111110110000110
10000101
10011001111
1111111110000101
110000000
110001010
1111110001110101
1111101011010001
1111110010000001
101100111
1010111010
1100101011
1110101001
10001100
1111111001110001
100001010
1110101011
1111111101011111
1111100111011011
1111110011110111
1111110101011110
110010011
100111010
11010100
111011111
100010010
1111111101100000
1111101111101011
1111110111010011
1111110101011001
1111111111111000
1011011
1111111101100000
1111110010001011
1111110010101000
111111110
11001100
1101111010
10011111000
100110101
1111111101001000
1111111100110010
1110000
1111111100100000
1111110000100011
1111111010100001
1111110011011011
1111101110001000
1111110101010110
1000011001
1111111011110111
101101111
1111110101010111
1101110
1111110111001110
1111110010011111
1111111001100100
1111111000000000
1111110001010101
11001110
1111101110100111
1111101100101011
1111111001001101
11011010100
1001110010
100100011
111001011
101101011
1111110100111011
1111111010000011
1111110100101110
1111110111101011
1111111000100111
100101110
1111110101110011
1111101010111001
1111101111000000
1111110111110010
1111111100101011
1000011110
1001011011
1111111100100011
1001010
1110001
1111110110111010
1111100001110000
1111101111101100
1111101010001100
1111011010000111
1111110100100100
1111111001100111
10000000
101110011
1101110101
1110001110
100100100
1010110000
1111110001001101
111110
1111111011110111
1111100111111010
1111110011001011
1111110010000110
1111111011001101
1111110010000110
1111111110010011
1111111111000101
101001100
1111110110001110
10010
111100101
1111110110000111
1111110001100100
1111101000010111
1111011111000110
1111100011100011
1111100110110111
1111110111111010
1111110100111101
1100001
1111001011
1001110000
1001001111
1111111011110011
1111111001000011
1111111010000000
1111111011110001
1111111010000000
1111101000101011
1111111101101011
1111100101100110
101100011
1111111011000010
111000001
101010110
110000101
100101101
111100101
1000
1111111011010100
1111110000001001
1111101010011000
1111100101001010
1111101000110110
1111101000001111
1111111001010101
101010011
1111110110110001
1111111110100100
1111110101001101
1111111010101010
1011010111
110110110
1111110110100000
1111110010111000
1111101100001011
1111111101111000
1111101010000010
1111111100010110
1111101110111110
1111111110000110
1111110111100110
111001001
1111111001000011
1001111100
10111011
11110101
1111110011100010
1111111100011001
1111101110000101
1111101101001000
1111111100101100
1111111111000011
1111110000000000
1111101010001000
1111100000111010
1111101101000000
1111110001111010
1111111101111000
1111111000001101
1111110101110101
1111110101000100
1111111111100000
1111111111000100
1111111010100000
1111110100101000
1111111000001000
1111111110101010
1000011001
110001101
1111110111101000
1000110010
1100110
1111101101111010
1111110001101111
1111111010110011
1111110100001001
1111111101101001
10111111
11100100
1111110011011101
1111111110110100
1111111110001001
1111111000001110
1111111010010111
1111110011101010
1111110010011110
1111101100010111
1111110010001100
1111001111
1111111100100110
1111110101101100
1111111111000010
1110010010
1111111101100001
1111111011010100
1111111110111110
1111101100001111
10001100
110011001
100111001
1111110011101000
1111110100000000
10101
1111111100101001
10100111011
1111111100
1011010000
1011100111
1111111011011010
10100000000
1111110110101111
10000000
1111110111100011
1111111111111011
1111111011111111
100001010
1111111001000111
1111111101011110
111010000
1000010100
10011111100
1100
1111111110110101
1111110101000100
1111110100000010
1111110001111100
110010110
1011000011
1111111011101000
1111111101010111
1111110000010010
1000000111
1000101000
1111111101111101
1111111100
1111111010111001
0
10111010
10010111010
101101110
1110111001
1010011101
10010100010
10001000011
1111001010
1111111101101111
1100111011
1010011001
1010011110
1111111110110010
1101110
1100010100
100100101
1111111010101111
1000100010
1111111110111100
11000011
1111111110111111
1111110101110101
1111000011
1010111001
1111111110011000
100100
11000111001
1000111010
10101
1011011010
100101010
1011010010
1111111111110111
100011
1111111011111111
1111111110000001
1111110000001000
10001101
1111111010101001
1011011110
1111111000111010
1000000
1100001
1111111110110101
1111110111110110
1111111010011000
1111111001110011
1001000
10001001011
1111110101001101
1111101111010101
1111111111101110
101101010
1111111011000110
100011111
1111111111100000
100111000
1111111010010101
1000111100
101000000
1111111000010110
1111110101101000
1100000000
1110000011
1111110100110110
1100000001
100010
1111111100110011
1111111010110001
100100110
10011111
11110001
1100011111
