1111110111001010
101000010
1111111011001001
1111111111001010
1100010001
1111111101100101
1111110110010001
1011011011
1111111111011001
1111111010001110
11001011
1111111001011011
110111
1111110100010110
1111111110000101
100110110
1010110
100010011
1111110010111001
1111111111101011
1000000011
110000011
101000010
10001011
1111111111100110
1010010001
110111
1111111111110000
1100
1111111110100001
1010110101
1111110001011001
10101011
1000110101
1111111010001101
101000101
100100011
111110111
1111
10011011
101110000
1111111100111000
1010001
1111111111011000
1111111000010001
1111111100111011
1111111010110110
1111111001001011
1111110010101110
10001001101
1111111001001001
1001101011
1010011
1111111010000110
1111111101100011
111001010
1111111010000101
1111111100101011
1111111011011100
1001111101
111110
1111111001101101
1111101100111001
10101010
1111111100010010
1111111111000010
1111111110010110
1111111111000101
1111111000010000
1111111010001011
11010101
1110111110
1011010000
1100110000
1111111100010000
1111111000010000
10010000
100011001
10101110001
10100000
1111111001110101
1111111111100100
1111111011101001
1111111001010110
1111111100010110
1111111101110001
1111111100100110
101010111
1111110010001000
1111101101110011
1111111011110011
1111111011100000
110110011
1111110101101100
101010110
1000011011
110001000
10111011
1111111111110001
1101100000
111101010
11101000
111110000
10011001010
10001000001
1101001000
1111110100001101
111111011
1111111010011001
11000001
1101011001
101001100
1010110011
1101011100
1111111110100010
1111110101011001
111001111
10101101
11001001
11111101
1111111011111110
101000000
110100
1111110010100111
1111111100000011
110110100
101010000
1111111111000010
1001001110
111011011
1001100111
100110111
10010000000
1011001010
111100101
101010000
1001111110
1111110101100010
11011101
1011011
1010001111
1111111110101100
111111100
110111001
1111111110011010
11001000
1111110000101100
1000110011
1001011
1111111000101100
1111111011111101
1111110111100011
1111110010100110
1111100110110001
1111100010110111
1111100110111001
1111101010000110
1111101100111111
1111110101000011
1111110111001010
1111111011010111
1110
1001010
101110100
1110101
11010100
100100011
1000010100
1001010110
11001001
1111110010110100
1111110101010011
1111111111111010
10110011
1010001100
10010111
1011001110
1110100
1111111011100001
1111110111011010
1111110000111111
1111101101010110
1111110001100101
1111111110101011
1111110110010001
1111101111010000
1111111011001100
1111110000101011
1111110100111101
10100111
1111110100001011
1111101011100111
10111100
1111110001111100
1010100010
1111111101011100
1001110
1111111111110100
110110100
110101011
1111111110001111
1111110101010000
1111110111101011
101101110
1111111000011100
1111111100111111
1111110111000101
1111110110111100
1111111100010011
1111111001111001
101110001
1111111100011011
1111111101011011
1111110110000110
1111111001001101
1111110011101011
1111111010011111
1111111011111111
11101
1111101010101101
1111101011100101
1111111110010010
11101001
1010000101
1111111101101100
11010000
101001010
1111111101000001
1111110110110010
1111111101000001
101001
1111111110100111
110010000
1111111111100011
1111111100010100
101001
1111111101000000
1111111111010010
11111010
1111111100010010
1111111011110010
10101010
1111111101001011
1111111011110100
1111111001110110
1111110100111011
1111111101000000
1111101100111101
1111110011001101
1111111110110110
1111111010010000
10110110
1111111010101100
1111110101111000
1000111
1111111010110101
110101001
101000110
111001111
1111111010001110
1111110010001000
1101011000
100111001
1111111001001000
1111111100
1111111100011000
1111111101110000
1111111110010111
1111111001011111
1111111100110101
11110111
1111111010101110
1111111101000011
1111110111010101
1111101011000011
1111011110110100
1111100110110100
1111110011000100
1011001001
1111111010110010
10000000
1111110010110111
1001001110
1111111101010000
1100001110
1111111001101100
111110010
101010111
10000001110
101001000
1001001110
1010100100
1111111111000110
1101110001
1111111001101100
1111111101000000
10010100
10101110
1111111010111100
100010
1111110101000010
1111110000111011
1111100001111110
1111011001011111
1111100100000100
1111100110000000
1111110111100101
1000110
101000110
11101101
1011111101
10000011111
1111111010011011
100011011
11010010
11100011
1110100
111001
11011101
10110111
101110
1111111011001001
111000100
1000001111
10011110010
10101001001
101101011
1100001111
1000000101
1001101101
11100111
1111110011110110
1111101110110010
11100100
1111111101110101
1011001001
1011
111001100
1111111000100110
10101001
1111111100011011
1111110110011010
1111111100100011
1111111100010100
100111010
1111110101100010
1110010001
1111010
1111110101110101
1111111000011100
1111111100010111
1101100000
110011101
11100111110
10010000011
110100001
100000010
11010100
1111111010111111
1111101110110111
1111111101000000
11110101
1100001000
1111111001001111
1111110011111010
1111110110011010
111000010
10011100
1111111011101000
1101110011
11001100111
10111110
11001111
1111111000011001
1111110110000111
1111111011101110
1001000101
1111111010000101
1111111100011001
1011001001
1101101011
1110101100
1101110101
10001000001
1110111101
1000100001
1111111110000101
10010001010
1111110110001011
10111
1111111101010101
1111111111011110
1010100110
1111110101111100
1111110010010000
10111000
1111111010110000
1001101110
1010011110
101001100
11010101
110111000
111111001
1011011001
1100111100
1111110001000100
1111101110111101
1010001101
10010110001
1011101110
10010011101
1101100000
1110010111
1000111011
100011110
1110011001
1111111100101100
1111111001010001
1111111111000101
1001000
1000110110
1111111101011100
1110110000
1101000011
10001101101
110000111
1101111011
1000001110
1000110101
1111110111000100
10110000010
1001001000
1111111101011101
1111110000001110
1111111100101111
10001111010
10010001010
11010000011
10101101111
11000000101
1101100010
1110001100
1100011100
111010
1111111101111111
1111111111110001
1111111110111110
1010101101
1111111001011110
1111111110100000
1111111100101110
101000111
1001011
101000011
1001010101
10110100010
1000100100
1000101011
1001010010
1110010011
1111111011000000
1111110000000011
110110011
10010000001
1011001000
100010010011
111011100
10010001110
11100000101
1111111111010001
1110111
101010
11111101
1000100110
10100011
1111111010101111
10010010
111011100
1111111111111111
11100010
101000010
1000100000
100000110
10110
101011101
1100100001
11001000
1000110010
101111011
1111111000111100
1111111010001110
11000010101
1101000001
1000100100
111101101
1111101111010011
1101011000
1111111010100101
1111110110000010
10000010
1001011000
1111111011000010
1111111100100010
1111111111110101
1000100111
101010011
111000
110110010
1111111001010010
1111111100101010
100111011
1111111001000011
1011100
1111110011110010
10001000
1011011
1111111011101001
1111111111110001
10011101000
1010000111
110111110
1111111100011001
1111111101010010
111010
1111111001110010
10011100
11101011
1111110000110001
1111111101010101
111100101
1111111100001011
11110110
1011001111
10111
1111110101001000
1111111101101000
1111111100000001
1111110101100001
1111100011111000
1111110000101011
1111110001111010
1111101011111001
1111111001000010
11001
1001100011
1111111000011010
1111110111111110
1111111111011110
1111110001000001
10001000
1110000100
1111111101010011
1111110100011001
1111100100111011
1111110011000000
1111111000011100
1111111000001110
1111111110101001
110000110
1111111111010111
10000100011
1001001100
10001100
1111111111110010
1111111000111010
1111110011010101
1111101110000000
1111110110011000
1111110001011110
1111101011100000
1111110100111010
1111110101000000
1000000111
1001100111
1111111110111010
1010101
1111111001010111
1111101110011110
1111110100111100
1111101000011011
1111100100000001
1111101111110110
1111111000111110
1111111101101011
1100001111
1111111111110001
1010010100
100110100
11000110
1101001
1111110011001010
1111111111111101
1111111000010110
1111110010010111
1111100011100010
1111100100011001
1111101110010110
1111101010110001
1111101111110010
1111110000011110
1010000000
1111110000001010
1111111011001110
1111110001001111
1111101000100000
1111110000011101
1111101110010000
1111100011111001
1111110011101101
1111011100010100
1111110001010110
1110011000
101000011
111100000
111110100
110001001
110000001
110001001
1111111011011001
1111111101011100
100110011
1111101101100010
1111110010001100
1111111010010011
1111110001001001
1111110001100011
1111101010000100
1111100011001110
1111101100011001
1111110000011011
1111100010010100
1111101010010100
1111110010100110
1111011101000110
1111111001011000
1111101001000011
1111100100110110
1111101011001001
110010101
1111111110101101
101001
1111111011110101
1001010111
1111110011101011
1010011100
1111111110111111
111101010
1101100111
1010010111
1111111111111010
1111111101010011
111101
1111111110001010
1111111000010101
1111101110011100
1111110010100011
1111011110111110
1111101101010000
1111110010010001
1111011111101010
1111100110011111
1111101110001100
1111101110010000
1111100111100001
1111101110111010
11111010
1111111011110010
1111111101
1000010111
1100010110
1000000100
1111111000011100
101001110
1111111001101110
1111111110110110
1111010
1111111100011011
1000000011
1100100011
1111111110010111
1111110
1111111001111000
1111110100010001
1111110110011100
1111110100010000
1111110010011010
1111101010100100
1111101110010000
1111110110000001
1111110110100101
1110100
1111111101111111
100011011
1111110100000101
110000101
1111111101100010
1111111010111000
1101101
1111111100111111
1111111001000001
1111111111000110
1111111000110111
11101011
1111111011010110
10000111010
10100111001
110111001
10101111001
1100100
100110100
1001100101
110010110
1011110101
1100111001
1100010101
110100011
10001111011
10001001000
11010110001
1111011101
1111111011011111
1010010001
1111111111111010
0
1001000111
111000010
101100001
1111111010111000
111110
1111101111101101
110011101
1111111110000100
1101100001
10001010101
1111111100101100
1111111000111101
1000111101
10111110
10000111000
111010110
1100000
111001111
1110010001
10
1110100111
1111111111010011
1111111110000000
1010101111
101100101
1111111110101011
1110100
1011101111
1111111011101110
1111111000101100
1111111010010000
1111111001111011
100111
1111111111001001
10000101100
1010010100
10110001
10100010001
1111111100110011
1100001
1011010
1111110011100111
1111110101001101
1111111111100111
1011111101
1111111110001111
10001110110
1101110101
1000001100
1111111000101011
1111111110010110
1111111010001111
1000001101
1111110100100000
100011001
1111110010100111
1111111100000110
1111111011000101
111001
1111110111110111
