10000011
1100110001
1011101111
1111111110111001
1111111110000100
1111111110110011
1111111101010101
1001001010
1111110101110110
1111110101100100
1111111101010011
101000111
1111111111000100
1111110110011001
1101101
101010001
1011110100
1111111100110011
1111110000011111
1111111100000101
1111111111000111
1111111000001001
110110101
1111110100011011
1111111011100110
100100011
1011010100
1010011100
110001000
1100000010
1111111100110111
1011000
1111111011101010
1111111101110111
101000110
10001110
111001100
1111111001101100
1111111001100001
100110011
1111110111001011
1000
1100010
1111001001
11110101
10110100111
11000100
110111000
1111111011011100
10100001
111100
1111111001001101
10101011
1111111001111100
1111111011101000
100011010
1111110110011100
1111110100110111
10110
1111111101011111
1111101000000000
111000110
1000001011
1111110111000000
100001111
1011101010
1111110101111110
1111101101100010
1000111100
111101111
111101
1011101
1111111000010110
1111111001001010
10001100101
11010101
1111111011001011
1001011100
1111111101111111
1100011101
1000101101
111011101
1111111110000101
1100010
1111111100110111
1111101111111100
11001000
11100000
1111111011100100
1010011001
1001001010
1111110111101111
1111111100010000
10100110
1111111101010011
110101100
1101110100
111100010
1111111000100010
100001
1100111111
1111111010101011
101110001
111100101
10010110111
1010110011
1111111101001011
1111111000111001
110001
1111111000000000
11101100
1111111001011100
11011100
1111111110111110
1111111111111110
1111111100001000
10110101
1000111110
1111111110010110
1111111101110001
1111111111010000
1111101
1111110111000010
1111111010101011
1111111100011010
1111101001001110
111010011
111010
1111111111100100
1111111110001001
10010000100
11000000
10000000001
111010100
10000100
1010010111
1111110110000011
1111110001100111
100110011
1111111100110110
1111111101011000
1111111001010010
111100011
10100
1111110101010111
100010011
1010100
1111110101110100
1111110011001100
10010010
1111111010101000
1111111011000111
0
1100100010
110011100
1111111011011110
101111111
10110101110
1111111001110000
110110110
1010011010
1001010100
111101101
1111111110110000
1111110010110111
1111100
111101111
1111110001100110
100001100
1111111111000011
1111101111101010
1001110111
101011101
1111111011101000
1111111100110110
1111111101100111
1111110011011110
1111111111111111
1111111011010111
1111111111111110
1000
1111110111101000
111010000
10100111
1111111110010101
10000
1111110011010011
1111111111001111
1111111111000010
1111111111101011
110110000
1111110110101011
1111111100110100
1111111011001100
1111110101011000
11000001110
1111111111000001
1111111101111001
1111111110100000
101001010
1111110111010001
101000000
1111111111000010
1111110011111100
101010010
11101100
1111111100010010
1100110111
1111110010010100
1111111101000110
1111111011010100
1111111001100100
1011
1111110110100101
1111111010100101
1111111110000010
1111111010100100
10010111
1111111011001111
1111111001100111
1111111101100000
10101101101
1010
1111110011001010
1101101011
1100011
1111110101010110
1110010
1111111011101111
11001100
1111111100111110
1100110100
100110010
100101000
1101001
111011110
100101000
110101010
1111111001110001
1111111101101111
1111111111110001
1111110110010011
1111111000001101
1111110111001111
1111110100010101
1111111110101001
1010110011
1111111110011001
1011011
1111110111010111
1111111001000110
1111110101001000
11001100
1000111001
11000111
100110110
1111111000101101
1111101111100011
1111011
101111101
10010111000
1111111010111101
1110100001
11001110100
11010011
1000001001
101101010
1111111111000000
1111101001000001
1111111010101011
1111101111101101
1111110101001111
1111111000100110
1111110000010011
1111110110000101
110001000
1111101110110000
110001111
1101101
101100100
1111101110111000
1111111110111101
1101011
1101111
10111111
11111011
1111111100110100
1111110110100111
1001010000
1001100000
1111111100110000
1001000000
101011100
111100110
1101011110
1101011010
100001100
1111110011101111
1111110000100000
1111110110000111
1111110000101011
1100001100
11
1111111110001011
100100100
1111111111000011
1111111100000010
1111111111111010
10000110000
1000000000
1111111111111000
1111110011110100
1111110111011000
1111111111001000
1111111000001000
1111111111100111
10101101010
1100001010
1111111111100000
1101111
1111101110011111
1111111111111000
1111111100111010
1111110011001110
1111111101001001
1111101110000100
11
1111101010010101
1111110100101000
100111
1111110111001110
1111110111000100
1101000
1111111000110100
11110110
1111111000111100
1111111110010111
1111111000001101
1000111010
1111111001110100
1111110001001001
10001111100
1111101010110001
1000110
1111111000010001
1111111110001101
1111110001011010
1111101011011101
1111101001011111
1111110111001101
1110101
1111111101101001
1111110110111010
1111111000110111
1111110100101000
1111110010011011
1111110101011000
10110011
11000101
11110101
11000010
1111111011001110
1111111101101101
1100000
100110011
1111111111011000
1111111011100011
100010010
1111111001011101
1111110011111100
1111101011001110
1111101010000110
1111101000011010
1111100011000101
1111100110011011
1111101010101000
1111110000101001
1111111111010001
1111111111101010
10100110000
1111111100010011
1111110011110011
1111110000000001
1111111111101010
111110
1111111100011110
1111111010110000
11101011
101011010
1111111110011000
1111111100110000
1111111100010101
11110
110000
10000011001
1111110111100101
101001010
1111101010010111
1111011110110100
1111100110000011
1111101101011101
1111101001011000
1111010011100100
1111111001001000
1111111010111001
1111110101011100
1000010000
101011
100101110
10010011
1111110001110010
1111111000010111
1111111110000011
1111110010001000
10100100
1111110110111111
1111111000111000
1101110111
1011110111
111010111
1111111111111110
110100011
100010110
1111101100011001
1111111000100000
10011
1111101010000000
1111101100010011
1111110011110111
1111111001011001
1111110010101011
1001000
1100010111
1001101000
1011010001
1011011010
1000001000
101111
1111111101010101
1111111011110110
1001001
1111111100001010
1111111111001010
1111110001101110
1111110011000100
1111111000100011
10110111
1111111111001101
10000011
101100111
1011001011
1111111100101111
1111111001101111
1111110100011111
1111110111111100
1111111010100001
1111110100111011
11010000
100000001
10011111
11010100100
1100111000
10000010000
1000111
101011000
1111110101111001
1111101110100000
1111101111100010
1111111100000001
1111111011111100
1111110100000010
1111111001100001
100111
1111111010001011
1011100
1111111111000100
1111111100011111
111001
111010110
1111111111110011
1111111000000000
1111111001100001
1110011
1111110110010100
100111
10001010111
11000010100
100011011110
1011100101
10100001010
10000011010
1001110111
1000010000
1111110100011110
1111101001110001
1111110111010100
1111111000111110
1111101011100100
110111100
101001101
1111111111111101
1111110111100111
101001110
1111110111010011
100000110
10110010
111110110
1111101111011110
100100011
1111111100000101
1111111001111100
1011100100
111001111
1000110011
10011000110
11111011110
11110000101
100000101001
1110000010
1001000110
1111110100010010
1111111101100100
1111111110010011
1111111010101001
1111111001111111
1111111111000010
1111111011110110
1001110100
1110011111
1111111001000101
111011111
111000000
1111111100000100
1111111101100001
1111111101101110
1111111110100110
1111111010101000
1111110011101001
1111110111010001
1100011001
100001111
1110100100
1010011001
1101100000
10000011101
111010000
11011100
110000001
1111111110110001
111011001
10010100
1111111100010111
1011
1111101111010001
1101101
10100010
100110010
10011010
1111101111100001
10001111
1111111010001101
1111111001000010
1111111110111101
1111110011111111
1000101101
1111111111010101
1111111110001000
1000100101
110110110
110110101
1100111000
1010110011
1111111111000000
1111110100110011
1010100101
101100010
10001011
1111111110000010
1111110100000100
1111110001000111
10110
10011001010
1111111100010101
10110111111
1111111100010100
1111111110110001
1111111011100000
100011010
1111110100111111
1111111111000100
1111110011011001
110101010
1111111110111011
111011110
11000001
10010011
1111111101001101
110010000
1101100
1111111110000010
1010010010
1111111011110011
100110001
100110111
1101000
111000101
1111110111
1011001111
1110010
1100001
11111000110
10101000
1111011
100010111
1111111101010001
100110011
1001101000
1111111011011001
1111101110101000
1101111
1000100110
1111111111111010
11000101
101110011
10101100
1101101111
1111110110111101
1001010111
1111111111000011
1110000011
1111110111001001
1111111111111110
10000011100
110011110
1111111000001100
100011010
1010001010
10000100
1111111010101101
1111101100111111
10110
100101111
1111111011111000
1111110110011011
110110
101101000
1111111111001111
1111110111000011
1111111010111011
1111111100011010
1111110110110000
1111110011010111
1111110110010101
1111111011110010
1111111100110000
10000000
11100010
111110001
1111111110000000
1111111101111000
11000
1111111111110100
1001100111
1000001101
10101010
1111111101011100
100110
1111101111000011
1111110111001000
1100001111
1111110000100011
1111110111000011
1111110010100000
1000001011
110011101
1111111000001011
1111111110100011
1111101111100011
1111111110111000
1111111111110000
1111111001001010
110011001
1111111011001011
100101
11111001
1111111000111010
10000100
1111111100000001
111111011
1111111011001111
1111111010100100
100010110
10011100
1111110110110110
1111110010111011
10101100
1111110110001110
110000
1111110111100101
1110011110
1111110011111010
100111010
111000001
1100101
1111111011111010
1110100
1111111101010000
111001000
1111111010011110
1111110100110111
11111
1111111011001011
1111110110001111
1111111010010000
1111110101001110
1111111100111111
1111111011010111
1111110100010110
1111111011000100
1111111001011101
1111110101010101
1111110110000010
1001110111
1111111111110001
1010000100
1010101
1111111110100111
10000001
10111110
1111111111
1000110101
10011011101
1111110110111100
1111111110101111
10000010110
111011011
1100101001
1111111110011011
1110110000
101011101
1111111011000000
1111111001111101
101111100
1111111001111011
1111111101001111
110011010
11100000
1111111010010010
1001101
1110000
1111111110101110
101111111
110111100
1111111001000110
101001010
1111111010111100
1001011000
1111111001101100
1111111001100110
100111000
1111101101110111
11010100
1110111101
1111111101101000
10110011
101100001
11111111
1111111110100010
101010000
1111101111111111
1111111100100000
1111110101101110
1001100000
1111111110000000
1111110100100100
1111110010011001
1111111011010110
1110100
11000000
1010001
1111110111101111
111111
1111111011000010
1111111011001101
