1011101110
1111111111100010
1001100101
1010011000
101100101
1101011
1111111011110101
1111110
100010010
1001110001
1111
1111111111110100
110001010
1011001010
1100101111
1111111011101110
1111111101100100
1111111101101101
1100100
1111111110011001
1111111011110010
1110000111
1111111010000011
1111110011001010
10001101010
1111111111010100
100110010
10010100000
11011
110010001
101000110
1111110101000110
110101010
1111110000000010
100100000
111110110
101001011
1101011
1111111100110101
1000001
1111111101001110
1111111110110101
1111110010011011
1001
1111111010011000
100100
1111111000000111
1111111011100001
1111111111010001
1011000101
1101111110
1000101
10101
1111110000100010
1111111100111111
11011000
111101010
1111010100
1111101111001111
101000100
100111101
1111111111001011
1111111100001101
1111111011101100
100010
1010010110
1011001110
1000111000
1111111110001011
100010000
1111111011001010
1011111
1111101
111111111
1111101100001111
101010
1111110110001101
1111110101001010
100101
11101000
1111110001010001
1111111111100000
1111010010
101100111
1101010
1111010
1011010111
1111111011111011
10001100
11110
11101110
10010100011
1111111111100011
1111111100100101
101001
1111111000100111
1111111100101101
1001110101
1110011110
1111111110110111
101010
1111111100101110
10010100
1010101111
1111110100011001
1001010000
1111111010001101
1010111110
100100011
1110111
100110110
1111111001111011
1111111110110000
10111
101010101
1111110111101001
1111111
1111111011010011
10001000001
1111111111010011
110101010
110110101
1001101011
1011111110
100010011
1110100110
1111111111100000
1111111110111010
1011011110
11111110
1010100110
1110001
111100000
1111111000011011
10011101
1011100111
1010111010
1111111101110000
1111111011101010
111001001
1111111011100000
1111110011111010
1100000101
1111110100100110
1010111001
11011110
1111110110010110
1001101000
1111111100000000
10001000000
10100110101
1011101101
1010111010
110011011
11110001
10000001100
1110110001
10001111100
1101010110
1110001000
1010111
10100
10001000
1111110111010101
1111101110111010
1111111100110000
11000101
1111111111011010
10001110111
1111111011000101
11011100
1010
1111111100011011
1001010111
1111110001011000
10001111110
1111111011010000
1111111110011000
1010011110
1111111000001000
100011001
100110101
1100011111
1010010011
1000101000
1011000001
1000100101
1110100011
101100111
1111111010100000
1110
110101100
100010
10011000
111001001
111111110
110110010
101111001
1111111011000010
1111111111100000
1111110001101101
1111111110010110
1111111010000101
1111000
1111111011001001
1111110111110000
111001111
1001110
1111111110011100
1111111011010111
11010001
1101
101000000
1110011
100111101
110000100
1111111011100011
101
1111111011111011
100000
1111110100000001
1111110100111100
1111111101010101
1011100011
1111110010110110
11010100100
1111110000110100
1111111100101100
1111111111011110
1111111001111110
1111110000101011
1111110001100000
1111101110011000
1111111001001111
110111000
1110100
1111110110011100
1111111110001101
1111111110000100
1111110011111100
1111110100101000
1111001
1111111001101000
1111110110010101
1111110110011101
1111110111010000
1111111001011011
1111111110001001
1111110010000001
1111101101001000
111010
1111111101000111
1010001100
1111110100000110
100011110
1111111010010010
1111110001111110
1111110111110101
1111111100001001
1100001
1111111100011111
1111110001100001
1111111111101000
110010101
1001001110
1111111000111111
1111110011100011
1111111010100011
1111100110111110
1111110100111100
1111111000110110
1111101100101110
111001
1111110010110010
1111111110111011
110101
1111110011001010
10001011
1111111000101111
1111111111111000
1111110101010001
1110001111
1111101110000111
1111111100101110
1111110101011100
1111110000001011
1111111010111110
1111110101101011
101100
1011011101
1111111011100011
1111111000000110
1111111001111001
1111101110101101
1111101001110001
1111011110101100
1111100101011111
1111101011111100
1111110101011001
101100
1111101110111001
101
1111111001101001
1111110000110110
1111111010010111
1111110110001000
1111110111111010
1000011010
1010111001
100010000
1111111010001110
1111101111111001
1111101111111001
1111110100001100
1111111010011011
1111111110100100
1001101111
10010011
110001010
110011
101001001
1111100100110110
1111110000010011
1111101000011100
1111111001101000
10101
1111111001001111
1111111010001011
1101001
1011001011
1111101110001110
11010001
1111111001101011
1111110100100101
1111110110010011
110011110
1111111100110101
1111111111010001
11111101
10001100000
1111111111101100
1111110110111100
1111110010110010
1111111011110100
10110100
10000100001
1011000001
10110101010
10000001010
1101010100
1111111110101000
1111111111100111
1001100011
1001100001
101010011
1101010101
10001101011
111010000
1111111100110010
1000100110
1111011010
111000001
1111111010000000
1111110111111101
101110100
1111111100110100
1111111011110011
1111111001101100
1111111100110110
1111111011001111
1010011
1111101001
100100
11010001000
11001011101
11101111010
1111000101
11011010011
1100100111
11000011111
1110100111
1111001011
1100010001
1110011000
111111000
1111111010101011
110011
1111111001100011
1111111100111110
110000001
1100001010
1111111110110110
101011000
1111111101011100
1111111010011000
1111101001100110
100110110
110100
10100111
101110111
10111100101
10100011010
10100010101
100001010100
111100100
100110
10100001110
10001101100
11101111
1100010011
1111111000100110
1111111100110110
100110
100011111
11
11000100
1111110111011101
11001101
1011111000
1111110110101000
1111111011000111
1111111101100001
1111111111110100
1111111000111111
111101000
1100011111
1010100001
10100000110
10111001011
11010011000
110010011
111111110
111100011
1111111010010001
11011
100100100
110101111
1111111010101011
111110110
1111111100011100
1111111110101011
1101111101
1000110001
1111111110111100
1111111111111100
111101011
1111111001010110
1111111010011101
1111101010101100
1111111001010110
1111110111000001
101010110
1111111011111001
1010
1100100101
101010101
110011110
10011100001
1001111100
11100111
110
1111111101010010
1111110111101100
10111
1101010
1111111111101100
11011111
101100000
1111110000010110
1111111001110101
1111111001110100
1111111010101111
1111111111100011
10000110
1111111001001110
1111111010111100
11111101
1111111000001001
10000110
1111101111010001
1110111001
1101001110
11101111
100011001
10010100110
101100011
1000010100
111111
1111110000100000
1111001
1111111100110100
1111111101101111
100111100
1100001111
1000110001
1001001100
1110010010
111110100
11010000110
1111111101100111
1001101111
1111111010001100
1111111110001111
1111111001110000
1010000111
1111110100011101
1111111011100111
1111111101100001
1100010010
1110000000
1100101110
1111110111011101
101011000
1111110111010010
10011010
100110010
1111110001000100
1111101011111011
1111111001011001
1111101001001010
101100010
1111111110010010
1110011001
1011111
10101110
1111111110101001
1010010011
100111111
100010110
1111111111011101
1010001101
1111111110111111
101000
1111111110011011
1111111100100101
1111111011000010
10010000100
11001100
1001000010
1111111011111101
1001010
1111110001111111
1111110101000100
1111111100011111
1111110111011011
1111110010111100
1111100100101110
1111101101111011
1111111101001101
1111001001
1111101100
1010100001
10001110111
1100111111
11011010010
10101101
1101110101
1111111011001011
10011010011
1111110111101011
1000100000
1111111100001111
1000110100
10100001010
10001101001
1101001011
10101100
1010000111
10111010
1111111010101100
1111111000011101
1111111111001110
1111111101010011
1111110111000011
1111101111101010
11000101
111001110
11101011
1100001000
1111011011
10100111111
1000011
10001000
1001110100
11010011
1111110011110101
1111111010011001
1111111001101010
1111111010101110
111
1010001110
1010000011
1111101010
1000011010
10010000100
101111100
11101100
1111111111101110
1111110110101101
101110000
1000101011
11010000
1111111001000011
1111111110101001
1111111111001100
101011010
111111110
10101001101
1111001001
11000101010
1010001000
1111111001111100
110001111
1111110000001110
1111111001101110
1111110101001110
1111111110011101
1111110111011101
110111110
111001111
1110000
10010101
1111111110010010
1001111011
1111111001111011
110111110
1110111
10100111
1111111101101110
100011101
100011000
10010011
1111111110000111
1111111001010101
110001010
1000111011
1111111110110011
1111111111100001
1111111011101110
10111011
1010000011
110110010
1000110000
1111111000001111
1111111110111000
1111111111100011
1111110011011110
1100101100
100001101
11000001
1111111000101001
1111110000110010
11100001
10100000
1111
1010
1111001110
1010110
111010110
1010101101
1111111011101001
1110001001
1000111110
1010100110
1101011111
1111111110101001
1111111011011010
1111101101101101
1111111100111011
1111111100000100
1111111011101100
1111110110100001
1111111110110111
100001011
11001
10001011011
1111111001111101
1111110000001001
1111111010101100
100110101
101001011
1111111000011000
1111111011010001
1111111111010111
1001110
1100001100
110010000
1010100011
111101100
1111110110111100
100011010
1111111011010010
101010110
110000001
110011010
1111111111001011
11110010
100001011
111100011
1111111111001001
1111111011010111
1111110111111100
1010001011
1111101111011100
1111111110101111
1101101101
1111110101101010
1111110011110101
1111111
1111111110001100
1111111111101101
1111111100100100
1111111010111000
1111111000111001
1111110011110010
1111111100001011
10100110
1111111001111111
1111111001010110
1111110110111011
111100110
1100000101
1111111001111111
10001100
1010000111
1000110
110100111
1111111111001111
111101000
1111111010101110
1111110011001010
1111111000010010
1111111110111010
1111111101011001
110111001
1111111001101101
1111111100001110
11110001
11110010
1111000
1010010
1111111010110110
101000001
11101101
1111111001110111
1000111001
110011
1111111000001010
10000110
110000000
1111111111110011
1111111100011000
1000011110
111101110
1111111001010101
1111111100101001
10101101
11111111
1111110110011110
1111111110000001
1111111110110000
110000110
110011001
1010011110
100001001
10001000
1001010110
1111111100100100
1101010101
1111110101000010
1111111100011100
11010101
1111110011101000
1011100001
1111111101010000
1111111111000111
110011000
10110110
10101111
1010000000
110101001
1010001
1111111000110000
101101000
