1111111101010011
1111111001010110
1111111110011100
1111110101010100
11001101
1111110110111011
1000000101
1111111100100010
110100101
1111111010100111
1111110111001100
1111111101000111
11100001
11001110
10010100
111000010
1001
1111110000111110
10100000
1111011
111000011
111011011
1010100010
1000111011
1001101
1111111000100111
1111110101110010
10000010111
101001011
1111110001010110
1111111000011100
100111001
1111111011010010
10010000011
1111111110100100
101
1111110101000011
1111110110001000
1101101100
1111110001010001
10011
1111111111010100
1100110
100000101
1111111010111111
1111111110010100
1111111111010110
1111111010000011
1111101110000000
1100110110
1011110100
111110110
1111110011000111
110010010
1000
1111110111000111
1111111100101010
111011111
100001010
1111111110110011
1111111100111111
1111101111100010
1111110010110000
1111101110001000
1111111111001010
1111111100110111
1111110101101001
101111001
1010110
1111111000000110
11011001
1111111001100111
1111111011110000
1111110111110010
10000101
1111111110010111
10110100
110000
1111111111010101
111011110
1111110110110111
110101111
1111111010101100
111100010
1111110110000010
1111111110100001
11010111
1111111100001100
1111111100010111
1111111100111011
1000111011
1111101000000000
1111110101101101
1111110100000100
1111111110100011
1111111000100000
1111101101001111
1111111001001111
1111110110010010
1011011
1111111100000000
1111110100100010
1111110100011110
1111111010110110
101001010
1111111000010011
1111111111000001
1111110110101100
1111111100111010
10001001111
100010101
1000111011
11100111
1111111111010101
1010001000
11010101
10010001
1111110100111101
10100000
1111101110111001
11110
1111101
1111111110000011
1111111110010000
1111111010001010
1111111110111100
1111111011011100
1111111011001001
1111110010110101
1111101001110011
1111111011100100
1111101110001000
1111111000010010
1111111101001101
1100100010
1111110110001011
11010001
1000100000
1111111000011100
1111111001110101
1111111010011001
1111111110111010
1111111000111011
11101010
1000000000
11110101
110100001
1111111101011110
10000000
11101111
1111111110110110
1010100000
1111111011110001
1111110111111101
1111111010101111
1111110110101010
1111111111001111
1111111100101011
1111111111010010
1111111001111100
1111111110011111
10111110
111001110
1100100010
1011110110
101011111
1111101110100000
1111111010000110
100011010
1111111110011101
1111111100101001
0
110111011
1000011111
100111110
1111111010000011
1000110000
1011010010
10101011
1010010010
1111110110010101
1111110101100001
1111111011010010
1111101111101100
1111111010001011
1111110001111111
1111111111110111
101100010
1000011110
1011011111
10000111000
10011101011
10000011111
10100111000
111000111
1111111001100000
1111111000101111
1111111101011000
1111111000100001
1111110010011000
1111111110100101
1101010011
1111111010111111
100010011
10101010101
10100111
10001111111
1011000010
111001010
1111110111101010
1111110111111100
1111111100101111
1000000100
1111110000001101
1111110000110011
11000000
1011001111
1111111010110010
1111111011101101
101101000001
100100111111
100011101
1111111000011011
1111110011111010
1111111100000101
1001110111
1010000111
1111111110001110
1001101101
1000111100
111100111
1001111110
1111010101
1110110000
10101100110
1111111011100010
1110110111
110001111
1111111111001111
1111110101101011
1111111001000111
1111111111000111
1111110110101000
111111111
1011101000
10110101
10110010000
10101101110
100110000110
10111111010
1111111011110000
1110101
100100101
100010111
1111111101101011
11110
1111111101011000
110101000
1001001101
10000101000
10100111100
0
100101
101101111
1111111110011000
101111000
10100010
1111110001101110
1111111011100110
101100001
1111111001001001
11010101
10110
1100001111
1111110011110111
101100110
10110010110
10011001101
1111111110111000
1110000
1111111110110001
101101110
1111111101110000
1111111100011100
1000001000
111001100
11110101
1110000111
110000011
10001101101
10110111010
10001110100
100010101
1011111010
1111111001010111
1010011111
1011011000
110000011
1111111011010010
1111111110111000
110011001
1111111110101101
11010
100001010
1101110111
1000101011
100000111
1111111100001100
1001111101
10001110011
1111111101111000
100000
1111
11111111
1111111110001111
1000001001
10010000111
1111111111011100
11100100111
11000000001
10001111000
1101011100
1110011011
11100001110
10110110000
10001111001
110100101
1111111011001000
1111100111101000
1111110010010001
1111101010101010
1111101101000010
1111101100001101
101100111
1111111101000000
1111101001111001
1111111010110000
1111101110111001
1111111110111111
1111111101001000
1111111011011000
1111111111111001
1010001111
1001
1111111011001000
10010111000
10100010101
10110111101
1011001011
1010101010
11011010011
1111011011
11110110100
11011000
1111111001111010
111101001
1111111100101100
1111101011001100
1111011111011101
1111100000101001
1111101011000011
1111110010010111
1010001110
1111111111101010
1111110011010001
1111110101011110
1111111001001000
1111111111100100
1111111011001111
1111111001011010
1111111110110110
110011110
110010011
11010101
10000
10010110101
10010100111
1001011101
10101111001
100100100100
11101100110
10011101001
110110
1111100
1111110000010111
1000011
1111100011101110
1111100100101101
1111110110101111
1111110111011111
101011011
1111111100100000
100001
1011110100
1001001000
100110110
1111110111000010
1011010
1111100111110010
1111100110100001
1111111010100011
1111111001111100
1111110101011000
1111111100101100
1000100011
11110000000
10101100101
10101000100
10000111011
100010010
1111111100010100
11111100
1111110011100111
1111101101010101
1111101111001100
1111110001100111
1111111111101100
1111111011100101
1111111001000011
1000000
1010110001
1011010101
1111111110000100
1111111001100010
11011
1111111000110011
1111101111000110
1111101010011111
1111100111010010
1111110011111011
1111110011001101
1111111000011011
1000110011
10000000100
111000011
10010110110
1011101000
1111111111010011
1111111011001110
10111
1111110010101101
1111111001111011
1111110011010000
110111111
1001001011
1111111000111100
111011101
1111111101011001
10110000
11010000
1111111101100010
1111111110101000
1111110111011111
1111110111010100
1111101101000001
1111100010010000
1111100000100100
1111011100101110
1111110010011101
1111110011010100
1000000000
1111111010001000
10100101000
1101111111
11110001
1111111110001001
1111101111010110
1111111110101000
1111111100110011
1111110010001011
1101000001
11010110
1111110100011101
1111110100000001
1111111110111010
1111101011111100
1111111111111100
1111111010101101
1111111110110101
1111110010101000
1111110010011110
1111110011101111
1111101101010100
1111101011000011
1111101111000101
1111011111000101
1111101000010110
1111101111110001
1001001011
101001000
1010010001
1001110100
1111111101010000
1111110000111010
1111110000110111
1111110011101000
1111110000100011
111001
1111101110011111
111101100
1111111100001011
1111111100111111
1111111110011100
1111111110111111
1110010
1111110110010001
1110111
1101000010
1000001110
1111110110010101
1111111000100111
1111111101000010
1111110000100001
1111100110110000
1111010011110001
1111101100011011
1101110
1011110010
10010111110
1001001001
10000111
1111111000101010
1111111111011010
1111111101000011
1111101110111011
1111111101101011
1111110011001001
111001000
1011010101
1111101110010000
110011101
1111111001111101
1100001111
1100010
101000110
11100010
1111111011111111
1000101100
1111111001101110
1111111110110100
1000000010
1111110111010100
1111110000000110
1111011010111000
1111100111001101
11111101
1001000011
1111111000010011
1111111001001001
1111111011010000
1111111100111110
11001110
1111111010000101
1111110110101000
1111111011011111
1100111100
1110001
1000010110
1111111110010111
1111111101100101
1010101001
1111111000101001
1111111000011000
100101000
1111111010100011
1111110000101110
1111111000111101
1001011
1111111101110111
1111111101011100
1111110101010011
1111100000010110
1111111101011011
100111000
1111111100010011
111001111
1001100
1111110001101000
1111110110101110
1111111010100011
1001000101
1111110110011101
1111111100010100
111011
1111111010010011
1111110110101000
1111111101110110
1000001
1111101111010011
1011110
1111111111010011
1111111111010010
11001010
1111110111010101
1111111000110000
101010001
1111111101110101
111001101
1111110101000100
1111101101110010
1111111110101110
1001
1111110100010100
1000101001
1000111000
1101100110
10111101
1111111001001110
1111111101100010
1111110011000101
1110
1111110100111010
100000
1111110100100111
1111111011111010
10110010
110110111
1111111111000100
1111111001001010
101001011
1111111101101110
10111111
1111110100011010
10110
10100001
1111111110010011
1111111010100010
1111111000101001
1111111111111101
11101111
1111111001110101
1111111111101100
10000110000
1111111011110011
101011101
1100010100
1111111001100000
11011000
1111111010001001
1111111111000101
1111111111000111
111100111
10010110
1011100100
1111110111100011
1010101
1000110101
1111110101001100
11111001
1111111111111101
1111101010100111
11011
1111111111011111
1111111001010101
1111110000001101
10000010
11111011
111011110
1111111111100111
1001111010
1110101001
110001001
1000100011
1111111111110111
100000000
1111111101000000
1111101010011101
1111110110011011
11
1111111101111111
101010111
100011001
10010
1111101110111111
1110111
11011000
110000110
11000000
1111100000
1111111111110101
1111111111100111
1001110001
110000101
1000010001
1000111000
1001111101
1001010101
1111111110100000
11001001101
1011011101
1000111
1111111001000000
1111111000011001
1111110111110101
100000000
1111101100111010
11001001
1000000110
10111011011
1111111110111011
110101001
10101010
1111111001101001
10011110010
1001101111
1010101101
1011100111
1000010010
1001100101
1110110011
1000000100
1101110101
1111110100110001
11010001011
1011101010
10010010101
1001110
1111111110101001
1101111
101100110
1111101010001110
1111110000000111
1111110101110110
1111110101100110
1111111101111000
1111111000000111
1111111010111000
1111110101001011
1110011111
1111101101010001
1111111110101101
1111110110101101
10111001
1111110010111111
110111
111101000
1010101
101001001
10110100
1111111101101001
1000101000
1111110010101010
1100110000
11000000
1110001
10110010
1111111110100110
1111111000010010
1111110010110010
1000010000
1111111010101101
1111111110000110
1000111000
1111110110101011
1111110111010100
11001010
1111110111110101
1111111000111101
1000000000
1111110000000100
101010111
1111111000100100
1111110010000011
1111111111001111
1111101111100100
1111111110011011
1111100110100110
10001
1111111111100100
101100001
11100000
100100011
1111111001010011
101100
1111111111110101
1111111111001111
1111111010111011
101111010
101001011
1111111100010011
1111110011010110
101110
1111111010001011
1111110001101110
