1001010010
1111111110010111
1111111010111010
1100000000
1111111111101001
1001100100
11000001
11111011
1111
1111111111101000
101110011
111001110
100110001
1111110001001010
1001111001
11111000
1111111101111110
1111110001001000
1111110010000111
1111110110011110
10101110
1010110001
1001000011
1111111101001110
1111101101001010
1111111001111000
1111111101100100
110001011
11101111
1111111110110011
1100
10010000100
1111111111111001
1110010001
111111101
1111111001010111
1111111110111000
111000011
10000101001
1111110000110010
1111111000000110
1001010011
100111001
110100001
101111010
1001111
1111110010111100
1001011001
1
1011001101
111011010
1111111110111111
110001010
1111111011110101
10010
1111100010
1011011100
1001111001
10011100001
1111111111011111
1111100111111011
101001
1111110110101101
1111111100101100
1111111010110000
1100000011
1111110110000110
10101000
1111111101011010
1111111101110111
1111110010001011
111000011
1111001
100
1111110111011101
1111101100110010
11001010
1111111101101000
1111111100011000
1111110010001100
1111111111011010
1111111010100110
111001101
1010111001
1111111010011011
1111111000010010
1111110011111000
1111111000110101
1111111001011010
1100100101
11111
1111110111000011
101111011
1111111001111000
1111111111001001
1111110111100011
11010101
1111110101010001
1111111101001110
1111110111111011
1011011011
1111100001100000
1111111011010000
1111110101110010
1111111110011010
1111111110100001
1111110000100111
1111111011000001
10011000100
1111111111111111
1100100010
1111101110000100
1111111101110111
10100100
1100
1111111001110000
110110101
1111111110100101
10110101
1111111001011100
1111110110000110
1000010010
11110100
1111111111000011
1111111100100100
1111111000100011
100111010
11010
11010100
1111110101101001
1111111011111100
11010001
1010110
1111110111010011
11000000
1111111101101110
111101001
1111110000110000
1111111101100001
11111011
110000
100001010
1111110110110111
101110010
1010110000
1111111110110100
1001100
1111111111000001
1111111011000111
1111110011000111
1111111001010010
1111110101011000
1111110011111111
111011011
1111110011001100
1000100
110100000
1111111000110011
110000001
111001011
11111011
1111110100101010
1111110111011001
1111111000011100
10110001
101100100
1111111000110010
1001011110
1111110011100011
1111110011111100
100011110
110011
1111111100010010
111101000
1111101101100111
1111111111010000
1111111001111110
1111110000110101
1111110111110111
1111110010101111
1111101101001000
1111110100110010
1100101
1111110111101001
1111110011001010
1111111011010001
1101011010
1111111101000010
1001111
10011110
1111111111110101
1000010100
1111110101010111
1111110101001001
1111110101100100
1111110110010011
1111101011011011
10010111
111101
1111111101001010
111111001
1111111101111101
101010100
1111111010100111
110100100
1111111001100100
1111111011011101
11
10111011
1111110101010101
1111110111100100
1111110110110100
1010100
110101011
1001111011
11000111
101010111
1011000110
1111111001010011
1111101011010101
1111100011001100
1111111010100010
1111111111011101
1010001000
1111111101001111
1100100010
1010010
1000111001
11111
100001100
1001011101
100001110
1000110010
10001001
1001001101
1111111111001111
100001011
11110
1111111010101110
1111110111010110
11111101
1110111111
1001100011
1111111100011011
101011001
1111110111011110
1111111111111110
101011010
1111110100011100
1111100110101001
1111110100110110
1111111110010100
1111111111100110
1101101
1111111101000000
111101
1111110111110010
1011000000
1111011100
11111111
1010110
1111111111011100
1110110
1111111011000011
1000011000
1000011010
1000011
100110100
1010011001
10011101001
1010000100
10010
11100001
100111111
1001010111
11111
10011
1111111111100110
100111001
1111110110000001
1011001111
1110101111
1100011100
100000110
111010100
111011000
10010001
1001011000
110100011
1011001
1111111111000100
1101110000
1111111001111000
110110001
1111111010100000
1111111111010111
1001000001
1111010100
1111111001010000
1010011001
1111110101
1011000010
111010001
10001001111
1111110101001101
1111111011100100
10110001
1111111011110111
1111111000111010
1111111011011011
1000100010
1111111001111111
10001111110
1101111
1000001001
10010110
1111110101001011
1110111011
11010001
11000111
111010011
10100000
1111110111011100
1111101101010001
1111110100001110
1111010001
10000101010
101011101
1001111100
1110000001
101100010
1000000101
110011110
1000011111
100011010
111011
1111111110000111
1010100
1111110101101000
1110101011
111101011
1101
100111111
101101000
1010011100
101000011
11010011110
1010111
10000000
1111101001011011
1111110000111111
1111100010111110
1111111110111000
101000001
1111110010011001
1111111110101000
100011000
1000011000
110111110
10010100
1010011100
101101011
1000001100
11101101
1101111
110001101
1111110011010001
1111111011001100
1111111101010010
1111110101011111
1011000100
110111010
1010010010
1100100110
10011001111
1111111111110100
1111101001011010
1111100111001100
1111100010010100
1111100100011011
1111110101011100
1111111011100100
1111111001000001
1111111101100001
100100
1111111011101101
11010111
10001110110
10
110100111
10111011
1111111000111111
101111101
1111111001111110
11010011
1111100
11100101
10100101100
1001100110
10010000011
1111111111101101
101000001
110100100
1111110110010100
1111011001110111
1111011011111011
1111100011011001
1111100111011111
1111110110110001
1111111111100010
1111110101001110
1111110110011001
100110001
11110010
10000110011
10011110
111011001
1111111100101000
101110110
10000010110
1011100001
1111111101010111
1010101
111101010
1110100
1111111001101110
111100011
1111111110000011
1111111011000101
111101010
1111111101001001
1111100100000010
1111010000000110
1111011101111001
1111011110101111
1111101010010011
1111111011000010
1111101110100111
110100111
10001011
100010101
1111111101111101
101001111
101101
1111111010100111
1111111001110101
1111110000011011
1111111011101101
111101001
11101110
1110101111
1111111001010001
1001010
101100011
1111111011111110
1101010000
1111111111011001
111000011
1111110100010101
1111010101101110
1111011001010110
1111100001010001
1111100101110000
1111111001100110
1111110111100010
1111111110001110
1111111011000001
110010000
1111111010111000
1111111000110000
100110001
100010100
1000101100
1111110100011001
101111011
101111110
1000001101
1111111011010111
1101101001
1111111000000010
110110100
11111011
111100001
100101001
1111111110011110
1111111100011000
1111111100110010
1111010110000010
1111011110000101
1111101011010110
1111110101011000
1111110110111010
1111111101111001
1111111000111011
1111111111110111
1111101000010111
1111110111011100
110111110
1111111100011100
11100101
1111111010111000
1111110011001000
1000001
101000
11100110
10010
1111111111110001
101101001
1111111101011110
1111111111001100
111100
1111111011000000
1111111001111010
1111111111111011
1111101101111111
1111101011000110
1111100101011111
1111101011101011
1
1111101100010011
1111111010010011
1111111110001010
100000111
1111111010010010
11111010
1011011110
1000111111
1111111011111101
100000
111101101
10000000101
10000100011
1111111100100101
111111001
1111111000101001
110000001
1111111010010100
101010011
1111111110000110
100101101
1111111100111110
101000001
1111110110001010
1111101110101110
1111110101111110
1000001111
1111111101100001
1111110110110001
1111111100100000
1111110111101011
1111111100000001
1111111010000011
1111110110111010
101101001
1111110110001000
1111110110111111
1111110001111011
1111111
100010001
110001111
1111111111011110
101010111
1111111011000001
101001
1111111101010110
1111110011011010
11010100
111110111
1111110011001110
1111111010111010
11100010
11011010
1000101110
111110
10111000
1111111100010101
1101000
1011100101
1111110110011011
1111110010011101
1111111111001100
1111110011001110
11000011
1111110110010011
1111110001000111
1111110101011101
1111111111101001
1111111101000000
10001011001
1111111100100001
11101011
1111111111001010
1000011000
10111001
1111111101001011
1111110100010110
1111111000010010
1111111110000101
100100011
1000100
111111111
1111111100001100
1111111110011001
1111111110100000
101001
110100101
1001101000
1111111011000010
1111111101101001
1111110110101001
11110011
0
100010
1111111011001100
1111111010001110
1111111001001100
1111111011101111
1111111011011000
1001110
101111001
1111111100001000
1001100101
110000110
1001101
1111111111110000
1111111111000000
10001111
111011001
111110010
110111
110000110
11011000
1111111011000011
1111111111010001
10001011011
1100000
1010001
1111111100011001
1111111010001001
1111110111100011
101011100
100011000
1111111011101000
1111110010110010
1111111000001111
1111110101110000
1111111110111000
10010001101
1000110111
1101010
1001110101
100010101
1111111100101000
1111100
1111111010111100
1111110101011010
101100110
1111111101000010
100011111
1010101001
1111111011011111
110110
1111110100001111
1111111010011100
1111111000101010
1111111110111000
1111101110010001
1111111010001111
1111111101100010
1101000000
111011
1000101100
10110001
1111011
1111000
1111111000001101
1111111111110001
1011011011
1111111110111110
11001010
100111001
110100011
110010100
1110000010
101110000
10111010
11011111
111011101
11000010
100100110
1011100
110001011
1111111011010000
10110
1101010
11000001
10010101
1111111110000001
100111011
1111111111010100
1000101011
101011100
1111101001
10000001111
10011101
1001011000
1111111010110001
1111111101000000
1000000011
1100101001
1111111100111100
100010101
1001011000
1110001
1111111000100011
10000000101
111011110
10
1010110101
1111111011000101
1111110101111110
101011011
1111110101000011
1111111101100111
110111000
1001100101
1111110101011001
1111111001001111
1111111010101000
1111111010011101
1111110110010010
1111110100110111
101010110
1010000101
1111111100000110
1111101100010111
1111111001100111
1011111
100110101
1111110111101011
1001000001
1111110100000000
1111111111111000
101100011
101011100
100100001
100000101
1111111000001010
1111111100000001
1110000001
1111111101001000
100000001
1111111011001110
111110000
1111111101010100
1000000101
1111110000101111
1111111101010010
1111110101011010
1111110100010010
100100000
1100100010
1111111100100110
11011100
1111111100001011
111111010
11100000
1111110110110010
1111111110110011
1101100011
11000
1111111100001001
1111111011110000
11101010
1110100110
1111111001111101
1111101111100101
1011101
1111111100110100
1111111110101100
101111110
1010010
1111111011011100
1111111011011011
