1111000
1111111110011110
10011100111
1111111101101011
1111111000111110
1111111001000010
1100010000
1111001011
1111111010010101
1111111111111011
1111111100010111
101000100
1010100011
1111111111001110
1011101111
101100110
1111111100100101
11110100
1111111011010100
1111110011110111
1001101100
1111111110111001
100011111
1111111100000111
1111110111010001
100100001
1111111111100000
1111111000101100
1111110011001111
1111110110111111
1000001010
1010101100
1100
1110111
100011010
1001010
1000100010
1111110111111111
11100100
10010011
1111111011010111
11111000
100111000
1101010
10111
1111111101010101
110111111
1111110111110100
1110
1101111010
1111110101001001
1110011101
11011111
1111111010000101
10000101011
1111111100001111
100001101
1111111000010101
1111101110001111
1111111110011011
1111111111111000
1111110001111010
1111111101110010
1111110101110100
10011
1111111000111010
1111101010111101
1111101111101100
1111101111000001
10000101
101001110
11011100
101001010
11001011
110110
1111111111001010
1111111101110101
1111110
1010000000
1111111111111001
11011
10011001
1111111000111010
1111110110000011
1111111010001010
110110010
1111110100100111
1111101100000001
1111111101100101
1000000101
1111110100000011
1111101011010100
1111111011011101
1111110111101101
1111111100101001
1111110000011101
1111101110001101
1111101101000110
1111110101001010
1111111000111100
1111110101010000
1111111011011100
1010001
1111111111010001
100000100
1011010
1111111111000000
1111111101101011
1110100
1001001000
1111011
1000010100
1111111010110111
10101100
1111111001111100
10000010
1111111100001101
11100100
10111101
1111110011110111
11011111
1111111110100011
1111110011101011
1111101000001110
1111111101010111
1111110110011101
1111110100000010
1111110000010000
1111111100110111
1111110110111110
1111111101100001
1111111100111011
1111111110110110
1101111
10011110
111110001
10100
1000000101
1111111110100011
1111111110101000
11001001
110010001
1111110111001111
101010011
10101011111
1111111001100101
1011111011
1111111101011000
1111110110000100
1111111001100010
1111111001010110
1111110001110001
1111110101011011
1111111100010100
1111110100001100
1111110111011000
1111101111001010
1111111010010100
1111110110100110
1111110100111011
1010110001
1001110
1101101111
101110100
1111110011000010
100011011
1111111111000011
111110101
11101000
1111111111011000
1111110101000000
1111110100110100
1111101110011001
111000101
111010001
1111111101110111
1111110101000011
1111110001111111
1111111010111110
1111101101011101
1111110111111101
1111111001100110
1111111000011000
1111110000111001
1111111001000100
11011011
11010001
1111111010110110
100001111
11010
1110000011
1111111100100000
111110100
10011101
1111111011001110
1111111011101011
10000
101010010
1111111101010100
1101000010
1111111011100111
1111110010011100
1111111111001000
1111111010111110
1111111010011111
100011100
1111110100110000
1111111010000111
1111110100001111
1111111111110010
1111111001101111
1111111110001010
101111110
1111111010100010
1111111100111010
100101100
1100011110
1111111110011111
100011010
10000111001
1011001011
10101100000
10101010
100000000
1001110
1111110101011001
1111111110111010
101101101
1001110011
1111111011111111
1111101111101000
10100010
1111101100101011
0
1111110011110010
1111110110001000
1111110100001111
110010101
1111111011001101
1111111110001100
1111111110110111
1110010001
1100100111
10000010110
1010100101
11011100
1011011111
101011110
1100100010
10011001
1111111111100010
101001001
1010100011
1111111011001101
100000001
10100110
1111110010
1111111011100000
1111110111110101
1111110010111111
1111110011111001
1111111000111101
1111110011110001
11000010
0
1111010011
1111111100111010
111010100
10001
110010001
101110101
110010110
1111011110
1111111111110100
10101111
10100000011
1111111101101010
100011110
1101001100
1111111110101010
1111111111001110
1111101101010010
1110110001
1111111001110010
1010111110
101101011
1000110
1000011100
10001000
1111111010001011
1111111000000110
0
11001110001
10110010001
11001000010
1000011110
101111100
1111110100101100
101001
1111110111011110
111010100
11010010000
1111111100111010
10000010000
1111111001001100
1111110101101111
1111100000
1111111111000100
1000010010
1000101110
1111110110101111
1001010101
101101110
1111110111001010
1010000
1011010111
1011011101
1111001100
1101011111
10010110001
111010101111
101110111001
100100010010
11111110011
1000000101
1101100
1111111110111000
1111110110001001
1111111100011100
1110111
10010011101
10
1111111111010000
11101011
1111111101010010
1001111111
1111111110001000
1111110101001011
1111110011111011
1111111010101001
1111111101010110
1111111101010001
1111111110111111
10000101010
100010111
10011001100
10010001101
101000100010
101001101110
11111001010
100010100010
11101111101
1101000001
1100110101
1001001011
10110000
1111111101100000
111000
1111111111000100
1111110110110111
1111111110001101
101110011
1111111100111011
1001111000
111011010
1111111011001001
1010001001
1111110110000111
1000
111011000
111001111
111001
1111111101101010
1001010010
1111111011001101
10010110101
10110000001
101100000
10101010100
10001100000
10001100110
10001110001
111010011
1111111101011001
1111111011101111
1111110111001101
1110000111
1111110010000101
1111111001011101
1111111010001010
110110100
11100101
1111110110001001
1111101001111101
10001001
1001010
111010100
1111110000111101
11101110
1111111101111000
1111111000100010
1111101010110110
101011010
1101000110
1011111101
1000001
10001011000
10101000000
1111111100101111
1010101111
100000101
110101
10110100
11001000
1000110010
1111111001100000
1111110100001010
1111110011000100
1111111101000001
1001101
1111110101111001
1001110100
11001100
1111111100110110
1111111110101100
1111101001110011
1111111110111001
1111111001010000
1111110011000000
1111101110110001
1111111100110110
1101010001
1011000101
1111111100101011
1000111111
1111111100101011
101011001
1111111101001110
1001101101
1101110100
1111111100011010
10101111110
11010111
1010010
1111100110111100
1111111000000100
1111111100001011
10110100010
1111111011100100
101111100
1111111011101100
11000001
1111111001
1111111110010110
1111110001011010
1111101011010000
1111110100110100
1111111111110110
1111110100001110
1111110110101110
110000101
1111111100110001
10101011
10010101000
1111110110010110
1000111110
11111001
1010001010
1001111000
1111111111011011
1111111011100100
1111111100110111
1111110000000101
1111111000000111
1010001101
1011
1111111110101000
11100000
1001010010
1111100101111110
10101100
1111101100001100
1111111101001101
1111110111100010
1111101100001111
1111110011010111
1111101000101001
1111101010110110
1111111001100100
1111110001010011
1111111111010110
111011001
1111111000110100
1111111111110011
1111111101001011
1001100100
1111111111011100
1111111001011100
1111110011110101
1111111001001111
1111101101110001
1111101111110010
1111111111010100
101110001
1100110
1111111001011101
110100101
1111001110
10001010
1111101111110101
1111111000100110
1111101010010100
1111101001000010
1111110000011011
1111101011111100
1111100111101010
1111011110011001
1111110100100111
1111110010000101
1111110000110111
1111111
1111110001101100
1111111100001000
1111111100100011
1111111111110110
1111110010000100
1111101111011110
1111110111101011
1111100110011010
110010100
1111110011111001
1010
1111110111010010
10011010
1111110100010101
110111
10000001001
1111110101000110
1111110010
1111110100001110
1111100100111110
1111101011001001
1111110010001010
1111111011101110
1111110100011011
1111110010010101
111110
1111111100100011
1111111010100111
101011100
1001110100
1111110111100011
11001101
1111101111100111
1111110000101001
1111110101101111
1111110100111001
1111101000110100
1111110100011100
1010010100
1111111101101010
1111111100111100
10000011001
1111111111001011
1111110011001110
11100000
1100
101010011
1111111110110100
1111111101011010
1001100
1111111100010001
1111111010001011
1111111000010101
1001110
10001111
1111101101111000
11011010
111000000
1111111111011101
1111111011011010
1111110001010010
1111111100101101
1111101110011011
1111111000100000
1111111011011011
10000001
1001101100
1111101110010111
1111111100010001
101100000
1111111100001100
1111110111101110
1111111110001101
111111010
1100100011
1111111101110111
11000
1111111100001100
1111111011111100
1111110110001001
100010100
1110110110
1111111101011111
1111111110101001
1111101111101101
110111000
1111111101101100
1111111110110100
1111101111111010
1111110011110011
1111110111111101
1111101101000000
10111111
100010110
10000100
1111110001010110
101100
1111111111000010
1111111001110010
1111111111111110
1100011100
1011110
111110000
1001011111
10100
11010110
1111110110010111
10001101
1111111011100001
1111111011001011
1000101011
1100110111
1111111111100111
1111110100111110
1111111110100111
1111110111000100
1111101100000100
1111110110101011
1111100111010111
1111110101011111
1111111011110100
1111111100101010
1111110111110111
1011001000
1000011
1111111111100101
1111110101001101
1010110000
1100100101
11111110
101010010
100000011
1111111101111001
10110010
110100100
11010001
1111111111
1011001101
1111111101101101
1000010010
1001110001
1110011
1111100111111001
1111110011111011
1111111001001001
101
1111111101001010
10010101101
10000000111
1111111000101000
1111111011110011
11001
101001001
1000100001
1111111100000001
1101110110
1100001
10001111101
11101101000
1101100001
1101000000
10101100011
1111110100
1100010011
110101101
1111111110111100
11100011
10000110110
11111
1011
1111111010101011
1111111100001001
1111111110110110
1111111100100111
1111110000000111
1111111000101100
10000
1111111110111101
1111111001111100
1111110001111101
1111110111010111
1000001101
1101110100
101000111
1111111100111110
11001010
1111111100011001
1011111100
1110011101
1100100100
11110110
1111111111011101
1000100110
1110001100
110011100
1111111010110110
1011001010
1111110111011111
1111110011111000
101111
11010001
1111110110110110
1111111101011001
1111110100001000
1111110010101001
1101000111
1111111111101101
111101110
1111111100111010
1000001000
1000011010
11101011
10001010
1111101101011110
1010110
111000111
1101000
100001
1111111010010011
1111101110010101
1111111101101010
1111111101101111
100000011
101011110
1111111111001111
1111111100111010
1111110001100001
1111101101100100
10000111011
1111111101110011
10001011
1100100
101011110
1111111100100001
1111111111010111
100110011
11001000
10
1111110010101101
1000010010
1111110111000110
110001100
1100010100
1111111000101110
1110010011
1000011110
1111110110111101
1111111110111100
1111110110000110
1111111100001011
1111110110011001
1100000100
1111111100111101
1111111110000111
10110010
1111111101010011
1111110110110100
100010000
1111111001000001
1111111110001101
110110100
1111111011000111
1111111100101111
0000000000000000