1111110011111110
10001011
1111101110011101
100000
1111111101100010
100100110
1111110110101010
110101111
1001001
11110101
111110001
10000000111
101001110
1111110111111100
10010101110
101100
1111111100110011
1111111100001101
1111111110111001
1000011
1111111010011010
101110101
1111111111011011
101
1111111111011111
1111111010110100
110011010
1111111100011101
110010001
1111111111010000
111111000
1111111110111111
111110010
100111100
1111110001001111
1101100101
1111111100000001
101111100
1111111101010101
1000111
1111110101010111
1111111011111010
1111111101010111
100011
11011000
1111111101110101
1011010100
11100010
1111110000100100
1111111010101011
1010111000
1111111101111001
1111111010101000
1010001101
1111110101110110
101010101
1111111001111100
10000100100
1111110110001111
10001001
1000111110
10000001
111010001
1111111001011111
1111111010100001
10100
1111111000101101
100101011
1111111011011101
1111111110101111
1001000001
1111110000010100
110100011
1111111100100111
1111111011001011
1111111111010100
1111111110001000
1111101100000100
1101111111
111101101
1111111010110000
111111000
1111110001100010
1111100
1111110100101110
1111111100100110
1001100010
1111110100010011
1111111111001000
1111111001110100
10101000
1111101111010011
1111111011000110
1110100101
1111111111101111
1111010101
1100011001
1101100100
101100100
1011100110
10010111100
1001001010
1111111000011011
1111101100101011
1111110100001111
1111110010011011
1111110110010011
100001
10100111
1100110010
101100010
1111111111011101
1111111100011100
1111110011111010
1111101000010100
1111110100101111
1111111001111111
11111100
1111111001100001
1010101010
1110000001
100011000110
10010011001
10000001010
11010010100
10101111111
1001101001
1100101011
1011001000
1111111011101010
101111100
111000110
10001100
1111110001011010
1111101110001001
1111110011101100
1111110110101001
111100000
1111111101000100
111111101
1111110011111111
1111111011110010
101111
10010011000
1010101101
10000011001
1111100
10100100100
1101100100
10110101
1111111111
1001011000
1001010
1000111000
11000111
1111000110
1111111010010110
11100
1111111100100110
1111110101111001
1111111000111000
1111110001001100
1111110111111110
1111101111110011
1111111111101000
1111111110111100
1111111001101001
1111101111000010
1000101011
1001000001
1111111100110001
1111110100001110
11100100
1110010000
10100010101
10101000010
10100110010
1110010100
10010100000
1011101011
1101100100
101111
1011010000
1100100101
10011000
1111111100100011
110011110
101001100
1111111000011101
1111111111011001
1111011100001010
1111100010101101
1111111011000110
101110
1111111111011011
10100001
1111111001011100
1111111011110111
110110
10
11000011111
11011101000
10110000010
1111110110011100
1111111111011101
101010001
1111111100001111
1100000100
10011001001
111111001
1111111000101000
101111011
1111111101011110
1000110
1000011111
11011001
1010000010
10100
11110
1111101001100100
1111011010111101
1111110101111010
111011100
101111011
1111110110111001
1111110110000001
1111101100011011
1111111110011100
10011111000
10111010011
10001011010
100000010
111000010
10001011101
1011111
1111100011
1111111110010110
1010000010
1000011000
1010011000
1111111110010110
110011010
100101011
1100010101
1000001100
1010011001
1111101100101101
1111000001100000
1111100010101000
1111111110001010
1111111000001000
1111111111010110
11011110
10100001100
1011011000
1000100110
11101000
1000001010
1111110111111001
1110110
10001111001
1111111000001010
1111111001110000
1111101110010000
1111111011110010
1111111101001011
10111011000
10001110001
1111111111101100
101000001
1001010
111000
10000100011
111010111
1111110000100111
1111011010110100
1111110101111001
1110011
10111011
1000110010
1111111101000010
1111111011001100
110110010
1111111110000111
1111110111001111
1111110011100011
1111110010100001
1111100111111100
1111100110100100
1111001110101100
1111001110000110
1111010010101000
1111010000101111
1111100111110010
11001101101
10011100001
1001000010
10011110
11000100
1111111001100000
1000011110
1111110100011110
1111101001110010
1111101010011101
1111110001011100
101010001
1111110001111001
1100001100
1111111011101011
1101100
1111111110001110
1111110111110100
1000001010
1111100011011100
1111011101010100
1110111101111101
1110101001000111
1110110111111110
1111000100000111
1111010111110000
1111100111101010
1111100101000111
101011110
11101001000
1101011010
10111110110
110111000
110000110
1111111010110001
110101000
1111100000100101
1111110100001011
1111111111101000
1111111010011000
1111111010100010
10010011
1111111000111100
1111111100000000
1111110010010010
1111111110001010
1111110011110001
1111011101011010
1111001011111000
1110101111011100
1111000101101101
1111011101001110
1111101010011111
1111101001001000
1111100111001101
1111110010001000
110010101
1100111101
1111111010010101
1111110101111001
10111001
1111110110100111
1111110100011101
1111101101011010
1111100111100011
1111110000001110
11111100
1111110011101011
1111110111010100
1111111101010001
1111111000000101
1111101101110010
1111110110011000
1111111100001111
1111110100110101
1111011100010000
1111010001011110
1111011100001111
1111110010001101
1111111010010000
1111110100110110
1111110011110000
1111110001001000
1111111101001101
1111111000110100
11010110
110000101
1111111010011010
1010001
1111110100001110
1111110111110100
1111101000101100
1111110001000001
1111110101000111
110101010
101011110
11000110
1111110110110011
1111111001100100
1011100111
1001001
11
11110111
1111101001110010
1111100010100011
1111111001101110
1111111001101110
101000011
1111111011000100
1111111010011011
1111111011001011
1111111000000000
1010100000
1111111001011110
1111111101111001
10100111
1111111110101010
1111111001101011
110011100
1111111111010100
1111110111001000
1111110001010010
1111111010011101
100010111
1111111111011000
1111110101111011
1111111011110000
1011001011
10011111
1001000
101011
1111100001001111
1111111111001110
1000010100
1111110000101101
1111111001000110
1111111101101010
1111111001011101
1111111100000110
111110110
1111111111101100
1000111001
1111111000100010
1110000
100000
1000101
1101
1111110011111001
111011001
101011
1101110100
1111111100101101
1011101010
111001000
110101011
100001101
1010000
1111111110100000
1010011000
100100101
10000000000
10011101010
10010111
10100100
1111111000010001
1111110001011101
1111111111101000
10101001
100110111
1111111000011111
100111011
110001111
1001100001
10101010
110010111
1111000010
1111111100101111
10001001101
10001110000
10011011100
110000101
1111110011111110
1111111100100010
111101011
1010001011
10001010110
10011100010
101111011
1101100100
1100100
111001110
1111111110010010
1111111011101010
1111101110000010
10100011
1101111011
100
101000010
110101
1111111100100101
10010111
1111111111011101
110110
1111110100100001
11000110
1111111101111111
10010000111
10110111010
1111111110010001
1111110100110111
10111111
10001101111
1110111
1111111111010110
100111001
10000000101
101101
101011101
1111111011000100
1111111000001010
1111110101010110
1111110110110001
1111110010110101
11100011
1101100101
1101111
1111001
10100
100111100
1010111
1111111110101111
10100100001
1010100010
100011110
10100000101
1111101010
111000010
1111111110111011
11110000
1111110100000011
1011001
111000111
11101101110
1001010100
100000100
1001110111
1111111111011011
1111111110101110
1111110110100000
1111110110101100
1111111111100100
1111111110100110
101100100
10010110
100000111
1111110111110001
10000100000
100001011
1101010
1000000101
10101000100
10111000
1111111010111000
1111111111011111
1111110101000001
1111111110101001
100000110
11101111
1111111110100011
101011110
100101101010
1101100100
1111111110110110
110110000
1011101
11010101
1111111110100010
1111110110111010
1111111100101111
1111110011100100
1111110010010111
100000110
1011010
1001001111
10001011001
111110000
10000101001
11111111
1101010001
1010000100
100010101
1111111011100011
101000111
1000010011
1111111110110100
1111111001001001
111110010
1100010100
1001100000
10101000101
10000000000
1001100010
1111111101111011
1000100101
1111111100111011
1111111011101110
1111111100000000
100000
1111111011001001
1111111101111111
11111110
111100100
1111110110010011
111100101
1111111011101111
1111111110001011
10010000101
110101101
1111111110101110
110001101
1111101111111100
100100101
10
101000000
1111111110110010
1111111000111110
10000000011
100101000000
10011000110
10100011100
1000010111
1011110101
1111111000001101
100001
1111101011000110
1111101110011010
1000100000
1111110111111011
11011010
11111001
1001001011
1111111101100111
11111
1111110110000000
1000000110
1011011
1010110000
1111111001110010
10010110
1111111100001000
111001001
1111111100010010
110101001
1111111011011100
10010111110
10010000110
10100100101
1111010000
1111111010101001
100000001
110100111
1111111111100101
1111111011010100
1111110011111001
1111101010010001
100110110
1111110111001101
101000111
1111111011101011
1111111110100110
1111111110000010
1111110011110010
1111110110111010
1111110011111111
101110001
101011100
1111111110110110
1111111111010101
1111111110110111
10110101
10010111100
110010
10000000110
101000100
1000000110
10010011011
1011010100
110000000
10001101
10111101
10100000001
10110110
11000001
11
1111111011111101
1111110100100010
1111101000011100
1111101001010011
1111111110000100
1111111111000011
1111111010000001
1111111011111000
1110100000
1010100110
1110111111
1001101111
1111111011101110
100
1111111011111011
10101101
11101001
101100
111101101
1100001000
1011010100
1111111000
1111111011011010
1111111101100101
10100011
1111111011101010
1111111100010110
1111111001101101
1111111101110110
1111110011111000
1111110111011010
1111110011101011
1111100111010100
1111110100111011
1111110110100011
1111111010011000
111000010
1101111
1111111100010110
1001010011
1111111110010100
1111111100010000
11011000
1111111011000000
110000011
11110
10101100
100100100
11010100
1111110110001111
1111110000001101
1001111
11100110
1111110001010100
1111110001110110
1111110101100011
1111110100000100
11011000
1111110111011111
100100111
1111111111010101
1111111101000001
1101111000
1111111100001011
1111111110111111
1111110101110100
11001000
1111111111100101
1111110110111011
1111111001010011
11010110
1101001
11010100
10111000
1111111100011000
1000101
1111111010110000
100110011
1111110011110010
1000000111
111101010
1111111000011110
100101001
110100111
111101001
1111110000110011
10001100100
100100001
100100101
1111110101001000
1111110101101011
1111110011011110
10110111
1111110111010101
1111111001111111
1000100100
0000000000000000