1111111111100111
1111111010000100
1111110011111011
100000010
1111111010100011
1111111111111000
1111111100001111
1111110101001010
1111111010110110
1111111000000010
10011011
11101111110
111000
11010011
1111111011110000
100001
1111111010010101
1001001010
1111101010111000
1111111110000000
1010000111
1111110111111100
1111111111000000
1111111001110000
1111111011111111
1111111001100001
1011001111
110101100
1111110101001110
1111111101010011
1001110
100011001
100101010
1111110001101010
1111111101101101
100011011
1111110011110110
1111111100011110
100011011
1100101
1111110110011001
1111110000001010
1111110100100011
1111111110011001
1111111111100110
1111111111111111
1111111011100111
1101111
1000000101
110100100
1001001001
1111111100000001
1111111101111010
1111111100111000
1100100011
1111111000110111
1111110110101010
1011001100
101100
101000100
1111111101001110
1111111101011110
1011101100
1111111011100011
1111111000011010
1111111000111100
1111111111011110
1011010
1010001
1111111001111110
1111111100001100
1111110110110101
1111111010110001
1000001011
1111111000101100
1111111110010100
1000
1111110011010010
1111111001000110
1111110111110110
10000001101
100011001
10110000
1111110111011010
1100111
1111111110100000
1010110011
11110111
1111110101000111
10100100
1111111011001011
1000101000
1111110110101100
1111111001000101
11000101
1111110101110011
1111101010101010
1100000010
1111110000001110
10001011100
1111111010101010
1111110110001101
1111110011000100
1111111111111111
100100011
11101001
1111111110100010
101110001
1111111110011101
1111111000101001
1000100
1010001110
1111111010111010
1111111111000101
1111110011110001
1111101111100101
1111101111000100
1111111011010010
100111110
1011000010
10011001
1000100001
1110110
1111000111
1100011001
1001011110
1111111111100000
1111111011101011
1111111001100110
1111111110000011
100010110
1111111010011110
1010001010
1111111011000111
10011010
1111111110100111
1111110111000010
1011101011
1111101
111111011
101000111
1110001011
110011000
1111111110100011
1001101010
11001110
1001001
101011110
1011101
1111111110011101
110011110
1111111011110100
111000010
101110001
1
10101000
11000101
101100101
1001100101
1111111000100100
1011001011
110001100
1111110111010001
100000110
1111111100011000
1111111100011011
1010000000
1111110111111110
1111111111110001
1000110001
1111101111010000
110011
11111101
1111111110110011
1111111101011101
11100000
1101101111
1000
1101011011
100011010
1111111111010001
1111111111110100
1111111000100111
1111110111101001
1111111101001101
1111111111110000
1111110100011000
1000111100
111101000
111101101
100000101
1001011
1111110010111011
1111111000100101
10110111
1111111111010100
10000001010
11100011
1111111111001110
11001000
101000100
10
1101101110
1010001111
11101100
100111110
1111111000000111
1000110
110010
1111111100000100
10111001
1111110111111100
1111101110110010
1111110011110101
1111111100001101
1101001101
1010111010
11100101
1111111000010111
100101001
1111110001000001
11011
10011011
1111111010010101
111110000
10100011
1101010111
1111111111110101
1000011010
1010110000
10010000000
10001000000
1111111111100010
101110110
10111000010
111101001
111111100
111110
10101111
1111111001010000
1111111001000001
10101101
1010101000
1001011110
10100110
11110111
1011100110
1111111011000011
1111111000100101
101100100
1111111101110101
1000000010
1100111
1111101111110001
11001111
10001000100
110010011
1100110000
1011010111
10011001001
1001100010
100111011
1100011010
110100011
111110111
1111101110100011
1111111100010000
1111110010000111
10010110
1011100
1101100001
1001011000
1100100100
1110101110
1101111111
10101001101
1111110000010001
1111111111010001
11000001
1111111001101110
110001010
101001011
1000001000
1111111100011010
1011011
11110101
1001010000
1101000111
1010001100
1000100111
1111111110100000
11101001
1111111010011000
1111111000001011
1111100110000111
1111101010111000
1010111000
1010011011
1101010000
100011111
1111111100110100
1111111111100101
1111111000111100
1001100111
1111111001010010
1101000
111100
10101010
1111111000110101
100001101
1111111100111101
1111111101010110
1111111110001111
1011110011
1111111101000011
10000000010
1111110
1111110101011001
1111101111110010
1111110110001111
1111101001010110
1111110011100111
1111011101011110
1111110000001101
1011100001
1001001100
100001001
1010110010
1111111101010010
1111111101110111
11011111
1111110110100110
1000000010
1111111110000110
1111111011011011
1111110001100011
1011001000
1111111010100001
1111111011010101
110000
1111110111001110
1111111000000100
1111110110000101
1111110110000101
1111101010100100
1111101011010001
1111100100100101
1111110100110111
1111101101101011
1111101101101110
1111111111000111
10000010101
100110
1010111111
11000101
10011011110
101000111
1001111011
1111101111000100
100011111
1111110100111111
111101111
1111111101000100
101010110
1111111110011111
101110001
1111111000111010
1111110110110000
1111111010001111
1111110000010001
1111100111100011
1111101001000010
1111101100101010
1111101001100110
1111101011000010
1111110001100011
1111111111001000
1111111011000111
1011000101
1111111011010110
100110101
1001100101
1001100010
111111100
1000101101
1111111001110110
1111101100100000
1111110101100101
1010111
11110010
1111111011110000
1111111111001111
1111111001011100
1111111111111001
1001111000
1111111000110110
1100111
11011011
1111110111011001
1111110001010101
1111100011100000
1111110100010101
1111101001011010
1111111011111101
10000101111
10000001010
1011101110
11100001
1101000
1000110100
1011011
1111100000
1111111011101101
11000101
1111100101100010
1111100111111110
1111111101110011
1111111110000111
1111111001010000
1000011010
1111111000101110
1111110101101101
111000001
1111111001110100
10000111100
1111110111110110
1111110010000111
1111111001011100
1111110111010010
1111110100000110
1111111001010101
110000110
1100000111
10011000110
100110
10101100101
110100110
1111111011101001
1111111011111110
100001100
1111111001101100
1111100101011010
1111101110100000
1111101100001000
1010000110
10001100100
101100110
1110011
1111111011001110
1111111100110100
1111111010101001
1111110011111000
1011101
1111101101110000
1111110101111110
1111111100010100
1111111010011000
11110
10100001
1110011011
1111101001
11101101010
110100000
1111011001
111000101
110010111
1010010001
11000011
1111110000001010
1111111010111000
1111110111100010
1111111010101111
1111111100011100
101010001
1111111011011110
111001100
1010111010
1111111001010011
110111
101000100
1111111111011100
1111110110101110
1111111100001001
1001111
1111110100001011
1111111111110101
100100001
100101100
1111010101
10110000111
1110100011
1000100
1111111100010110
1111100110
1010101001
101110000
100110001
1111110101111101
1111101100110010
10011000
1111111100111000
1111111010010000
1111001100
1111110111100101
1111111101001110
1111111010001001
1100101011
1010110
1010100010
11000110
1111111010000010
11011010
1111111110110110
1111111101100111
1111110110010000
1100111001
1010001010
11100011010
100010
111101111
1001010100
110100000
1111111101000001
1000011010
101100010
101001010
1011000
100001
10100100
111111011
1111110111110110
110010
11100001
1111111110011001
110101001
111000110
100000100
10011100
110011000
1111110010010100
1111110111111101
1111111001111000
1111111010110110
1111110010110001
1011001110
1111111001111000
1111111101101000
1111111111110000
11011000
1001101110
1111111110010100
1111111010101100
1111111010010011
1111111110100000
1111110001100111
1111111111100110
1111111101001010
1001101011
1110110000
1111110100001101
1011100110
11011001
1111110101011001
1000011000
11011001
1111111011100010
1010101101
111100101
1011000010
1111111100100011
1111110011110110
101000110
1111101111001011
1111110011010101
1111101110001010
10010001
1111110100101000
1111110010101000
1111110100000000
110100
111100010
1111111010101110
110101
1111111111100000
1111111100111001
1011000000
1111111010111100
1000011000
1111110111100000
1111111101010100
1111111000000001
110000000
100100011
1111111011001001
1111111111100011
1100000001
10011100
1101110100
1001100110
1111111010100010
1111111100111100
1111110010111111
1111110000001001
1111101011111000
1111110110001100
1111101111101011
1111111101101100
101100010
1000111111
101001110
111000100
1111011
100011101
1111101111111111
111011110
11000010
1111110011110111
1111111000111100
1111110101000001
10110111
10110101
1111111010101101
1000001011
110101000
1110110010
100000011
1000111000
101110101
1111111000111100
10110
100010
1111110100001000
1111111111111000
1111110111101111
11111100
10000010111
100110010
1000000011
1111110100100011
10100
1111111110000111
1111111111110010
1111111101100100
1111111110110010
1111111111101000
1010110110
10111
100000011
1111111000111011
1001101
1010010000
1000000000
1111111000110001
1111001
1111111110000100
1111111100001111
1111111111111000
1111111100111001
1111111110110110
1111111100111111
1111111001101111
1111110100111010
10000000000
11011011
1101010000
100010011
1111111110010110
111100
110001
101001001
1101111010
1000011000
1111111101011011
1001011010
1111111110110111
1111111110110110
1111111101101011
1111111101111111
110100011
1110000000
1111111010111011
1111110011001111
1011010
1111111100000101
1111110111010110
1111111101000110
1010000
1010001110
10111001
1111110110001101
10111000110
1111111100011000
1111111100100001
1111111101010111
1111111100101011
1111110011101110
1001100
1111110011110011
1000110010
1111110111010011
1011001001
101100
1111101100001000
1111111110010010
1110111
1001010111
1111111100110101
1111111110011010
1111110110
1111111111011001
1111111111110110
110111110
1001110001
1111111000101110
1111110000111100
101110000
101000011
1111111000010011
1111111101011000
1100011010
1111111011001100
1111110101101101
1111111001011101
1011000110
1111110101001011
100000101
101010110
1111111110101000
1111111111100000
11110101
1111110111100100
1111111011010000
1111110111101010
100110110
11101111
1111111011101100
1111111111101001
1100101000
1111110011100001
1001000010
1111111111010011
1111111111101111
1111111111011100
101001010
1001001100
1111111110001001
1111110110000011
1111111001011110
1111110111010010
1111110001001000
1010011000
1111111100100011
1111111100011010
101101111
1000001111
1111110011101000
100100110
10010001
1111110110110101
1111111100001111
111001000
1110101111
1111111100101010
1110001
101110101
1110111
1111111111011010
10010100
1011001
1010101100
1111111101110000
1101111
110100110
1111111010110100
1111111010111001
11110011
1111111110011100
101000000
1000011101
1111111001110000
1111111011110111
10100011000
1111111000101101
101101100
0000000000000000