111000
1111110100111111
10110
11101000
10000001011
1000100100
1111111100001111
10001
1111111111100100
11
1111110010000000
1111111011011101
1111000001
1111111100100011
111010111
10000110
101011110
1111111011010110
110101
1111101100110001
111110011
1111111110000010
101101
1111111010111010
1001010010
100101010
1000010011
1111110110100110
10101000
1111111011100101
1111111011101010
111010101
111101001
1100
1111111010010100
1111111111101000
1111110110001110
1111111010100011
100011101
1111111110000000
1111111010010101
1111110000010010
11
1110010101
110110101
11001
1010010010
1011001
11101011
100000101
10010001
1100010100
1111111010111011
1111110100101001
1111111000101100
110111
110111000
110101
1111110001011100
11000101
1100100
1101100
1111111101111100
10001111
1010011111
1111110100110011
1111111100100101
1111111111100100
1110101
1100011110
110110100
1101001111
10010100
11000000
1111111111010010
110111111
10011000
1000000101
1111111011101110
1111110000111000
1111111111011010
1111110111011001
1111111000011001
1111110101110010
10010011
1110001010
1100
101010110
1111110111100001
101111010
1111110100010110
10100000
11110001
1001000100
1110000000
101100111
11100001
1110011101
1111011000
10011100001
0
1110001010
1111111111001001
101101011
10000011000
1001111011
1000010
1111111010110111
10
1000101011
110000100
10110100011
1111110111110011
10110001
11101001
10010110
1111110101010110
1100011000
110011110
1111111001111010
1111110100111101
1111111000100011
101111110
100001011
111000
1111111110101000
1111110100111000
1111111010000110
110001101
1111111101001111
110001011
1111111111111000
1111111111111011
1010010010
1101000
11010111
111010
1111111011000000
111110001
1000000111
1101101100
1111110101011100
1111111111101010
1111110100111100
10101001
110110110
1111110101111000
111001
11001
1110111
1011010101
1111111011001101
1110010011
1111111100011000
1111110100110100
1111110111100000
1111110001010100
1111111011010011
1111111010111010
110100110
10001100
1000000100
1001111101
1110101111
1110000110
101110
1111111100001011
110110010
1111111100101000
1111111111001101
1111111110010011
1000011100
110011000
1010010111
1111110100011001
1000011001
10101101
1111111000000011
1100001
1111110111000100
1111001010
1101010101
1001010010
1111110100101111
1111111110111101
1111101001010011
1111110111000111
11111111
1111111100011011
1111111010011101
10100100
110010100
1111111011
1001001001
1111111101110001
101
1111111111100110
1111111110101110
11100
1111110011100010
1111111000101111
10010111
1111111110011011
1111111001000000
1111111011101110
1100011100
1111111111001101
1001001111
1111100110
1011110110
1010001100
111111
1111110111001100
1111111101101010
1111101100110010
1111110110001111
1111111010100001
1110110
1111110111100111
10001100111
1010011111
1011101
1101111
1111111111011011
1010101000
1111111110101111
1111110111000101
1111110101000111
11101100
1111101111001101
1111110011110010
100000000
1111101001000010
1111111101011101
101101000
1011001
1110101110
10101101100
1100010110
1001101000
1111111001010000
1111100110011101
1111110010011101
1111111001000010
110110111
1101111111
11011011
10101001010
10000011001
1111111001111100
11000
10001
1101010
1111110111110000
1010010100
1111110110101111
1111111101101110
1111111010000011
1111111101110001
1011000
10110110
1111100
11010
100001011
11011100
11111111101
111000010000
10011
1111100110000001
1111001110110001
1111101010011011
1111101110101001
1111110101111111
10101001
1110111101
1001110111
11000010001
1110101111
100001001
1111110111000011
10011011
1111111011101001
11111010
101111001
1111111001111011
1111111010010000
1100000
1111111001000001
1100110001
1111111101000011
10010011010
1100000111
10111101111
100010111101
10110001000
1111100001100100
1111011100011100
1111010110100000
1111011110010010
1111011101101111
1111100011101100
1111101000010111
1111100110100010
1111110101010100
111100010
1111111011101010
1111111100101001
1111110010001001
111010110
110011101
1111111000110100
10011011011
1000110000
1111111111011101
1111110110010011
10100010101
100111001
1111111010011110
1100010111
1111000000
111110101
11000000111
1111110111111110
1111011010011010
1111111000101001
1111100010101011
1111100110101010
1111100000001101
1111100100001010
1111100001001010
1111101100110101
1111111000011110
1111110010000000
1111111011111011
1111110001101110
1111111110100111
1111111010100110
101
101010100
11001011
1001010011
1111110011110100
1111111101010110
10000111011
1000101
11101010101
1001001111
10010000010
10100011001
1111110100001111
1111101111011100
1111111000100111
1111101011100000
1111101011000101
1111110011010001
1111101011011011
1111101011011101
1111101100011011
1111111010001101
1111111011111100
1111111111110010
1111111001001111
101000010
101010110
1001100001
1111111100001001
1111111001001000
1111110110111100
1111110010010101
1111111111110011
1011110101
1111111111100011
110110110
11111001
1010111101
1010011111
1000111011
1111110001010111
1111101101111100
1111101101000111
1111101100110010
1111101100100011
1111110011010000
1111111011111001
1111110111000110
110100101
1001010011
1111111010110001
100111100
1111111010011100
1001000010
101101110
1111111000101001
110111
101101101
1111111100001000
100101100
110001101
1001111111
110100111
1111111010001001
10001101111
10011101011
1111110111010101
1000111010
1111110011000010
1111110110000000
1111101111100101
1111110001100111
1111101001000011
1111101101000101
1111111000100111
100111100
1100010000
10010101110
10111110001
1110
1000001101
1111111101001111
1111111111000010
1111110011100111
1111111110100000
1111110000110001
1111001
1111111111100001
1111101110111001
1111111100001100
11001100
10011011000
101101001
11110100
1011111111
1111110000010100
1111110001110110
1111110001010111
1111110100010110
1111110100101001
1111101001001001
1111111100101010
11100011
10010011001
10000110000
10010010000
10101100
1001101001
1011
1111110000111101
1111101110100101
1001100110
1111111110010111
1001011101
1111110111110011
1111111101001010
1111111000001010
1111101110111111
1111111100100000
1111110000011101
1111110111110110
111100001
101111100
1111100000101111
1111110010100011
1111110101110111
1111101100110011
1111100001010111
1111111000110100
110001110
10010100001
101110001
1011001
10001011
100011011
1010010
10010001001
1000010110
11001001
10100100101
10101101
1011100101
1000000101
110101010
1111110110000001
1111110100100000
1111111110011011
1111110000101001
10101111
1111111000100110
10100101
1111101110000110
1111101110011101
1111110111010101
1111110101101011
1111101001111000
1011010010
1011011001
111110010
10010010010
1111111011110101
10110101011
10011010100
10111101100
11010000111
1111111001011100
1111111110001101
1111111101000000
100101111
1111111110100011
111100000
1111111001011100
101000111
1111110111010010
1111111011110010
1111101101101111
1111101010101101
1111110100001010
1111110111010101
1111100111100100
1111101111100110
1111110011000110
1111111110111010
1100100
10100001000
10011001100
1010000010
1101111010
10011101000
1110010
1111111101111000
1000110011
101001001
1111111101111011
1111111111100100
111110111
10011010010
10111100
10101000
1111101100000100
1111101010111110
1111111100101110
1111111010100101
1111110111110001
1111110111101110
1111111010111010
11000
1111110110100001
1111110000101000
1101001001
10010001001
10010100100
1101010010
1001000
1111000101
101010010
1111111110010100
11000010110
101101101
1111111111011011
10010100
111011
1111110111110101
1111111001110101
1111111010111011
1100000010
1101100000
1111110111001100
1111111101011110
1101010
1111111001110001
101011001
10010001
110010111
111100100
10100010100
1010010100
10110010110
10001011001
10000101011
100100100
1010110111
1111110100100000
1111111100011110
100101001
1111111000001010
1001000000
111110110
1011010
110001101
1011011
1111111100010101
1111111010001000
10010
1111111101011111
1111111101101000
101000101
1111111011101111
1111110101111000
111110110
1110111100
1111111100111000
10000101101
1001011110
1010010110
10111110
10001110001
100001101
101010011
110011000
1101110011
111101010
1111111110110111
10000000
1111111000001101
10100100
1111111101010010
100000111
1111111111011011
1111111010011001
110001111
1111111100110010
1111111101111010
1111110
1111111011101100
1111111111110101
1111110000111111
1111111001110101
1110010
10010001111
1010010000
1000100111
1000100110
1010111
11110100
1010101010
111110111
1101011
1111111000000100
111100010
100011000
1010110000
1111111111100001
1001011111
1000101111
10001010
1111111111011110
10000100100
111010001
1111111101110101
1111110110110111
10010010010
11011011
10111001
11010
1111111100000010
1111111101100000
101111010
1111111001011110
100
1111110011010010
10001001101
1111111101111001
11011011
10010111
1111111011100001
1111111110100011
1111111111111011
1111110111111100
1111110001100011
1111111010100101
1001110011
1111111100100100
1111111111110011
11111
1111101110101110
1111111111100101
100011111
111000010
1111111111110110
1111111111000111
110110111
11101001
1111111011010101
100111001
1111111100001111
11110010
100111111
1101011
1111111001100000
1010000000
1011111011
110011101
1100101100
1101110010
1111111010110110
100011110
1111111111111011
1111100111111101
1111111100011101
1111111101100101
1111101010100101
1111111110011011
111110101
111100000
1111110111110011
1111111001101101
1111111010100011
1111110101010111
1111111010010010
100111110
1011111110
1111111100100101
1111101110110010
1011111010
100100000
1111111100010111
1111111101011001
1111111010101111
1111111001110001
11110101
1111111111000001
1111101011100010
1111110010000011
1111111101010101
1111111110100001
1111111111100100
11100001
1001101110
1011100111
1111111001110100
1111001010
1111111110010001
1111111100101100
1111001000
100001
1111110100011100
1111111001000110
1111110101011100
11000101
1111101100111001
1111111101101010
1000001110
10001011
1111111111001110
1111110001011110
100111011
1111111011011001
1111111010010001
1111110111110001
1111111000011011
11010000
10111100
1111110100111101
101101
101011010
1111111000111111
1111101001011011
1111111011111011
1001001101
1111111000100011
1111111010100010
10101
1111111100001111
100100010
1111111110100011
101011100
111001010
1111110011010001
101111010
10000000010
1011100
1111111111110011
1111110101011010
1111111011101000
1111110010000011
1111110111111011
1000111000
1111110010000101
1111111001100011
100100111
1111111101111001
1111111100101001
1111110111111011
1111111111011011
1111111001011101
1111110010000111
0000000000000000