1111100101
1111111100010110
1111110110110100
1001100111
111100100
1111110111111011
1111110110011001
1111111001000011
101000111
101110010
1000011000
1111110100100100
111111
1011010
110100011
1111111111110100
1111111101011010
1111111101001000
1111000
1111111010100010
1111111001010111
1111111101011110
1111111000110100
1111111010110000
1010011101
110000
1111111010011101
1111110011000110
111001010
1111111111011111
1111110000100010
1101110000
111000011
110110100
1111111111101111
1111110110110100
1111111011101010
1101100101
100000011
100000
1111110100101000
1111000
1111101010011001
1111110101100100
110000001
10111000
1111111100001101
100101010
1111101100
1111110110010111
1111111000000101
1111111101011001
111001101
10010010
1000010
110110
1111111100100010
1111111100001000
101110001
1001001100
1110000
1111111110001011
1111111110010101
11100111
1001110101
1000001011
1111111110110011
1111111011011010
1111111111001100
101100110
10000100011
1111111011111110
110000001
10010010001
110011011
1111111000011101
1111111110000000
1000101000
1111110110100000
1011011000
1111110011000010
1000010
1111111100011100
1111110111000111
1111111100010001
100000111
111111111
1111111111000100
1111111110001110
1111101011101101
1111111101110010
1000000011
1111111011001001
1111111101000100
1111110111101100
1111111000011000
1111111000100000
1100010
1111110101111011
1001111
1111111100010011
10011000
1111110101000110
11100100
110001101
1111111011101111
1111111010110000
1111110100110001
1111111010110100
10011111
1111111111000010
1111111001000011
1000001101
1001101
1111110111010010
1010110
1111111000110001
10001011
11011110
1111110110110101
1111111100011001
1111100111100110
100110101
1111111101111000
1111111010100000
1111111110000100
1111111100110111
1111111100110101
1111110111010010
1000001001
1111110010000000
10010111
1111111110110100
10101111
1111111110110010
111101000
1111
110000
10111001
110
101101111
1111111111010101
101100010
1111110011100000
1111101100010110
1111110110101100
1111111001100111
1111110110101010
1111110101110110
1111111000001111
1111111000011111
1111111111010001
10001
1111111110100101
111111110
100111100
1111111000100101
1100001
1111110001110011
1000100
1111110000000000
1111111101101100
1111111011010001
1111110011100000
1010111010
11010010
1010101001
1111111111001101
1111111110000100
1011100
1111111100000101
1111111011101100
1111111110011001
1111101010110110
1111111011100100
1111111101111010
1111111011000101
1111111100010101
1111110111101101
1111111110010110
1111111110000101
1111110110001110
1111110010010000
11011110
1111111011100101
11111
1111111001100001
1111111100001011
1111111110111010
1111111100011101
1111111011010000
1111110010000101
110100100
1111110111100111
100111
111100
1111110100110011
1111111001000111
1011011101
101
1111111010100010
1111110001101011
1111111101011001
1111111111001011
1111111000111010
1111110111011110
1111111101001011
1111111110010100
1111110101010000
1111110101110001
1011001
1111111110001010
1111111101111110
1111110111100000
1111110010111000
1111110100000000
1111110110011001
10110110
1111110110010111
10101001
1111111010001010
1111111001010101
1101100100
1000011110
1011000100
1100110101
1001100
1111111110011111
1111111111011110
1111110100110000
100101
1111110000010100
111100
1111111100101110
1111111010101100
1111111000101101
101000100
1111111101011000
1111110110101011
1111110000010101
100000111
1001011101
100010110
100010110
1111110111001111
1111110100000111
100111000
1100101101
1111111110110110
1111110101100110
1111111010010100
10010100110
10011000
1111111010101101
1111110111011111
1111111101001110
1111101101100000
10000110
110100001
11101010
1111110010100010
1000101001
11110110
101011111
1111111111100101
1111100010
10000000111
1111111010011101
1111111110101110
1111111011100011
1011111011
101101100
1001011
1111111100100101
101111101
1111111100001011
1111111100000101
1111110101010101
1111111111110100
1111111101010111
1010100011
110101011
10010001
1111111001000011
100101110
100100001
10011000
1010000111
100101110
10000100000
1110110000
1000101101
11001010100
1111010110
1011000011
101101001
1111111110010001
101101000
1000000011
1100100001
101100011
1110101111
1000010011
1000101001
1000101110
1111110011100000
111111
111011011
1111110100111010
110100010
1111111001011000
1111111110100001
11101101
1001000000
10110000
1110010100
10110111111
10000001101
1101110100
10111010
1010000
1111111101111110
101110110
1111111100001101
1111101111011011
1111110111000100
1111111000111100
1111111011000011
1111011011
100010001010
11110100110
101101001
1100001001
1111111100001110
111100010
1111111101010110
1100011000
1111110101111001
110011111
101010001
100100101
1111111110011001
101010011
10000010111
10010010
1000111110
1001001000
1111110110100110
1111111011000011
1111111110000111
101010
1100100001
1111110110100010
1111110100010010
11010001
1100101000
10001111111
10001010101
10101101100
11001110111
101111101
1001010000
1101101000
1111111010011110
1111111100111110
1111111010011110
1011010111
1001111010
1111110111001001
1100010111
1111111011111001
100111111
100000001
1110110001
1111111101011001
1101100
1111111101110000
1111111100011101
11111110
1001101011
1111111001101100
1111111000010100
1111111110100100
1001111011
101110
1101001100
10100101001
10010111110
1101101110
1000101111
10100
100100010
1111111111100001
1111111011110001
110111110
1101011000
111010100
1111110101111110
10100110
1111111101000100
1111111010010010
101110011
1111111101001100
11010000
1111110111010111
1111111000100111
111101011
1111100001
110100111
1111110111111111
1111111100111010
11111011
100011010
11010001
1111111110010111
100010110
100011111
1000010100
1000111
111101
10001110110
1111110110110011
1111111111101001
100000
1111101011
1010110010
1001010110
10101101011
1111001101
10011111
1111111110100111
1111111001011001
100
101000100
10011001010
110000110
1010110111
1010100
1111111010110111
1111110110011101
1111110111101011
1111111000001000
1111111001100100
1111111110100111
1001001
1111111100101100
1111111001010110
11110010
1111110110110110
1010011111
1111111001001001
1111111000100000
1111101110100100
1100100111
10100001110
11100111101
111011011101
11011010011
1010101100
1001011110
1111111001111110
1111110111001011
10000010010
1110101100
1101111100
1111111011011110
1111110101011111
1111111111101010
1111110111011100
1111101111101101
1111111111011001
1000110000
1111110011001011
1111111001010100
1111111010000010
110001100
1111111101001011
11110010
1111101111001011
101010
1111111001111110
1100011001
110110000
10001110011
110011001011
1001111011101
1001000001111
110111100100
110101100001
11000010010
100111100111
1110111001
1001011
1111111100100111
1111111001000111
1111111010011010
1111110100101100
1111111111010111
1111110010000001
1111111010111000
10010010
1111111100100010
100110001
1111111101010010
1111111011111001
1111110001000110
10010110
1111110000110111
1111110111110011
1111110110001110
100111001
10000101010
11001011010
100111001001
111111010010
1001011110111
111010000011
101000010111
10011001000
1111110111110100
1111111011111010
1111111000010000
1111111001100001
100011010
1111110001001011
1111110001110110
1111110000100000
1111111000010011
1111110011001101
1111111111010100
11001010
11110101
100110110
1111111101110111
1110101101
1111111101110010
1111110001110000
1111110000001011
1111111101101010
1101000
100000110
1000111101
10100001011
10001111001
1100101000
11001000000
1111111101010110
1111101001010111
1111111100100010
1111110111011111
1111111001100011
1111111001100011
1111111000111000
1111100101100001
1011101001
1111110110000001
1100101101
1111110110111111
1100010001
110100101
10101011
11110
111001010
1111110111110100
1110110
1111100111101000
1111110111110011
1000010011
1111111110001011
1111111001011011
1111111011111001
1111110111111111
10100110
1111110101101111
1111101111100110
1111110111011011
1111110100110101
1111110001011111
1111110010101011
1111111100011100
1111110011010111
1101010
100111010
1111111101011111
11000110
1111111111011010
1111111010010101
100010100
1111111100011000
110111001
101011001
1001100111
1111111010111011
1111110110110111
1111101111000101
1111111001011101
1111110111011010
11010101
1111110000001100
1111111011100001
1111110001011000
1111111010001101
1111111000100010
1111101110010101
1111110100001100
11111000
1111101100110001
1111111000110101
1111110100111010
1111111011111010
10001001
1111110001011100
1111111010100010
1111111010101111
111000110
1111111001100110
101011100
1001000011
1111111111100000
1111110110000101
1111110111111100
1111110101011100
1001111101
1111110101000101
1111111000011111
1001
1001000
1111111010100111
1111001
1111111000011000
1111111011101100
1111111000010010
1111111110010101
111011101
1111111101110101
110110
1001010111
1111110111101111
1111111001000010
1111110111001001
1011101100
11000001
1101100
11100101
1111111100111011
111100011
1111101
1111111000100100
1111100111111110
1111101011101010
1111101100001011
1111110001010101
1111111100100110
1111101111000000
1111111100000011
1111111101110100
1111111101110000
1111110101111110
1111111001110000
1111111011011011
1111111000101001
100111
1111111001001011
10000100000
1111111001010010
1111111001001001
1111111111000111
101111110
1111111011100100
110000100
1111111010011001
10110101
1110000010
1111111010000100
1111111110010010
1111111100100110
10010011
1111111011100001
1111101000110100
1111101100001000
1111111010011011
1111111000010010
1111111001110100
1111111010010101
10110011
1111110111011011
1111110110000101
1111111100000010
1111111011110000
110001000
11010101110
1101000111
1111111100001100
1011101
1111110001000101
1111110111001101
1111111111011100
1111110111010010
1111111010000000
100011010
1111110101001010
100111
100010
101011001
1111111111110110
1111110101110101
1111111010110100
1111110101100100
1111001110
1111000
1111101011000011
1111110010110111
1111100000100110
1111110101111011
1111110110100100
100110
1111110011110101
1111111001111110
1111110100010000
100000110
1001101
10001001
111100110
1111111101010000
110011000
1011001000
1011011000
111001101
1101000101
1000001010
1111111001111000
1111111000100100
11100011
11111000
1111110000111100
1111111100000111
1111111011000110
1111111101001111
101100
1111111011011101
100101100
100011100
1111111100010110
1101010110
1111111111111100
10100100100
101111010
1110001110
1111111100001111
1111111100111010
1111101110100011
1111110000
1111110111001101
10111110
1111111110011010
100010010
1101001110
101110
1111110100110010
1111111011111010
101011110
1111111101000010
0
10100011110
111110111
100100100
1111111100001100
101101100
1111111011010111
10111011
1111111000110000
1111111111010000
1111110000001011
110111011
1111110101010110
1111111111110001
1111110010100001
110101101
1111111101110001
10001110
1111111100110110
1111111100110110
100011100
1000001110
0000000000000000