111101011
1111111111101100
1111111101110001
110110001
11100
1111111011001111
1111101010111110
1111111111010011
1000011
1111111000111001
1111111110110001
10001010100
1110101011
1100000
1111110101011011
1111111110000001
1111111111001010
1111111001010000
101011100
1111111110011110
1010010
111111011
111011
1111111111001011
1001010111
1111111000100111
1001001101
10
10000010101
101000100
1100011011
1111110001100010
10001011
1111100101001011
1111111010010101
1111111110110100
1001100001
100110011
1111111001010111
11000111
1000011110
11001101
111101101
1111111111010111
1111111111101001
10101
1111110111111001
1111111001010001
1000000111
1111111010110101
1010111000
10001010
100010101
1111011
1111111101010100
1010011001
1111111111000101
1010000111
1111111110111101
1011000110
111100111
111000
100111111
1111111010101000
1111100101110011
1101000111
111100101
1111111100001111
1000100000
1000100
1111110010100000
1111110000010011
1111111111010111
100001001
110110010
101111111
1000111010
10010101
1111110001110110
1111111111100111
1111111011011001
11110
11000010
111100011
1111110110001000
101111011
100101101
1111111111011010
10101011
1111110110011110
1111111101000111
10110000
1010011100
11011110
110110010
1111111101110101
100011110
11000000
1000111100
1111101100101111
1111110111101111
1110010
1111110111010010
1111111100100010
11101
11101000
1111111110000111
1111101011101111
1111111011110011
1100001
1111111010011010
1111111111011110
1111111110010101
1111111000111001
1001101
111001
1111111111110110
1001010010
1111111100111100
1001111010
1111111110001110
1010000110
1001011001
101001010
1100001
1111110111000100
1111111000000001
1111110100010100
1101000
1111111010111010
1100101111
10100111
1111110000110011
1111111110001111
1111111110010110
1100
1111110011000110
1111111111000101
1111111011110011
1111110111110111
1111111010010100
110011100
1000101001
101000101
1000
1111110110001110
101
1111111010100111
110011101
1111111110011110
10001100
1001010100
1010000100
1100110
1111011110
1100101011
1001001111
101110100
1011000001
1111111101111100
101110010
1111111010100101
1111111100011000
1010110111
101010011
1111111101011000
1001000000
10010
1001001111
1011111
111010011
1100000011
1111111101110110
1111110111001010
1111110110010000
1001111110
1000111001
10010101010
10100100
1111101001001001
1111111010110010
1111110011101000
1111110011001101
1111100110100011
1111110010100010
1111100110011110
1111101011111101
1111111011101110
1111101011100011
1111111100100100
10000100100
1111111111001100
11100110
1111111100111101
100101101
1111110011101100
1111111111100110
1111111010110001
11001110
1111111110010010
1111111010111011
1111111111110111
1111111101110001
1111110111011100
10011000
1011011011
1111001
1111111011011111
1111110110110111
1111101111010001
1111101000110010
1111101000001000
1111110110100110
1111101011001011
1111101111011100
1111111110000100
1111111110000101
1111110101001001
1001110111
101111
1110101010
1111111100010110
1100010000
110001010
101110001
111111
10011000
1111111111101010
1111101100100010
10110100
10011111101
11111010
1010010110
1011111
1111111000000010
1111111101011111
1111110000110110
1111100111100010
1111110010111101
1111110110011010
1111111010100100
1111110111001110
1111111001000001
1100100
1111100111000101
1111111001011000
110000000
111001100
111001001
1111110101101110
1001100000
1111111111010110
10110000
101110010
1111111100100001
110011111
1111110011100010
1110000001
1000110001
1111111000111001
11011011
11110010
11000111
1111110111000000
1111110001000101
1111101001001000
1111111000000100
1111110111100001
1111111011100011
1111111000001011
1111111010010001
1111111100010100
1111111001011001
1111111101100011
100110011
1110111000
1000010111
1111111100011110
1111111001011000
100101101
1101000111
1011101
1111111111011111
1111110101011110
101000011
1111111111111011
1100001001
1111111110100101
1111111110100111
1111110110000000
101010010
1111111010110110
1111110010010100
1111111010001010
1111111110000100
11010000
11100111
1111111100100111
1111110111000000
1111111101000100
100100111
1111111010000100
1111110111111001
1111111101011001
1111111011111110
100111011
11010011
1100011001
101011001
1111110100111010
1111111100100001
1111111101110000
10101001
1111111000101011
1111110010001100
1111110001101001
1111110000110111
101011101
1111111101100110
1111001001
1111111000001100
1111101110001011
1111100101110000
1111101000110111
1111101100000110
1111111111000000
1111110101101110
1111110111000101
1111101010100000
1111110001001001
1111110000011101
1111110100011101
1111111101110011
11110000
11000011
1111101101100111
1001001100
11110110
1011101
1111111101101000
1111111110111100
1111110011110010
110111011
1010011
1111111101111111
0
100110100
1010111110
1111111011011011
1111101010011001
1111101000010100
1111101001110111
1111110101100010
1111101000110100
1111101010000001
1111101100101111
1111101110011111
1111110001011101
110111110
1111111010011011
1111111010011111
1111111011110100
1111111110010111
11011010110
1111101001000110
111100000
111110001
110101011
1111111001101101
1111110111011000
1111111100111111
100110011
1010011110
1010110011
10100110001
100101001111
10110001100
1111110010001101
1111101111010111
1111101101001101
1111111100101010
1111110100011011
1111110010011111
1111101010001101
110000111
1111101101111010
101110101
10001111
101001110
100011111
111100110
11011000
101000000
10001001
1111110010011000
1111111011100100
1111110010111100
1111111110110000
1000010010
10100000110
1011100010
10000010001
100000001010
100001011101
100000100110
111
1111101101110100
100001110
1111111111100101
10000111110
1111111100010001
1101010
1111
1111111100110000
1101011110
10001011001
1101111
1101000001
111000010
111010101
1111110101001101
1111111000100100
111001
1111111101110101
1011010100
100101101
1010010001
100010001
1111001101
1101111000
1011000101
10100001011
1000110111
1111111000010000
1111111010101100
11101110
1001111010
1111110111100011
1111111111001101
1111101110101001
1111110101111101
10010100
1010110
1011100101
1010010001
1011110
1111111101110011
1000011110
1111110111111000
100010001
100000100
1001101111
100110001
1111111000100011
1101011101
10010011001
1001101010
1011010001
111110
1101111001
1010100110
1111111011010111
1
1110000000
1001100100
100101
100101111
10011110
11111111
1111110101110011
1000100100
111100101
1110011011
11000100
100101
1111111011110110
1111110000100001
100001
1111110010111111
1111111101101000
10010011
1000110101
100111010
100000011
1111111100
100100011
100001010
1010001110
10000101
1111111101101100
101000001
10000001001
1111001011
1101011010
100101
111101
1000010001
1001110111
1111111010010100
1110101111
10011010111
1001100011
1111000111
1111110101011110
1111111101111101
1111111010101101
1111110010100011
1111111001011100
1000110111
1111110110110111
11001100111
10110001000
10000010101
1001111101
10011111
1111110101111100
10101100110
1111111111100101
1000000111
110100110
100001101
1001010
101011101
100010011
1001000010
1001010110
11011010
10111110010
1111111111010010
1000010000
11010111
101100101
100111101
101110000
1111110110100011
1000011011
1111111010010000
100101100
10100011
10010001010
1000000101
1110000011
1001001100
1110111010
10100011100
1000010011
110001110
11111010
0
1111111100010000
110111000
101001010
1111110100001000
1100100111
1010010111
1010101001
1110111111
111100101
111111010
1111111110111100
1111111100010101
1101110
1111111100001000
1111111010011001
101011100
1111111110010001
1001100010
101000111
1111111011110101
100000010
10011111
111101111
1101100101
111000001
10101010011
1111010101
1001111101
10000100
110010000
1110
1100111111
1111111101000111
11001111011
10001011110
1111111010100010
11111
1011001010
1111111101011101
1111111001010010
11100111
1111111100011001
1000011
111011111
1111111101110010
1111111110100110
1111111011110000
1111110101010111
101110101
1111111010010001
1011001100
1110101010
1010111010
10001111111
1001001100
1010000111
1101010101
111001110
1111000001
1011110101
111000100
1011110101
10110100111
1111111100010110
1111111110111010
1010111000
11011110
111011100
111010001
1111111000010010
1111110100100100
1001010001
1111111111101100
1111111011011001
1111110110100110
1011011010
10010011
10010011010
110100100
1111111010010101
1010001
1111111101100110
1111111100010011
111110000
1111111101010001
10110100
1100111110
1000111010
1111111010100110
10011000010
1111111111000011
110010000
110111001
1111111101111000
1111111111001100
101111000
1100101101
1111111100000101
100100101
1111111001100000
1111111010000100
110101
1111111100000000
1111101010000000
1111111010101010
1111101101001001
1111110100100011
1111110000111111
1111110110110100
1111110000011010
1111110000010100
1111101011111101
1111101011010101
11111
1111110011000001
1000100
1111111101011011
10001111101
1001110010
110000101
101010010
101010000
11010
1111111000001110
10001111
1111110111101010
1111111000100110
1111110111101100
1111111000001001
1111110010011110
1111100111100011
1111101100100101
1111101100001010
1111100110000101
1111110000111111
1111100101010011
1111101100010101
1111101001001000
1111100101010010
1111101100101000
1111110110001010
1111100011000110
1111110111011010
1111101011000000
1111110010001100
1111111001101000
1000110011
101011101
1111111011000010
1111111011011001
1010110
1111111000101111
1010000100
1111111110101001
100100
10100000100
1111101010000000
1111111110111000
1111110111000100
1111101110000111
1111110001011011
1111101111000101
1111100101111100
1111101010000000
1111110100011000
1111101010000100
1111110110011101
1111101110011010
1111111000000001
1111100001110110
1111101111110011
1111110100101000
1111110011110101
1111111101111000
101001001
1111110001100101
1111111101010000
1111111110100100
10001111
10010011010
1111110011111001
1111110100011110
111100110
1111110011110111
1111110010001101
1111110100100001
1111111001000110
1111111101100111
1111110101101010
1111110101111010
1111110111000111
1111110000011110
1111111111110011
1111101111111010
1111110001010000
1111111000100010
1111110111000111
1110001
1111110111110011
100000000
1000010000
1111011
1111110111111101
110111011
11010110
1000101001
110010001
1111110101001110
10000010100
1000101100
1111111100110010
1111111001001001
1111110110000000
11010110
1011011011
1111101010001010
11000111
111000011
101001011
1111111110011010
1101101110
1111111000110111
1111111101100111
1111110111001000
1111110110011110
1000001111
1111111010000111
10000111
1111111100000111
1000101
1111111100100110
100100000
1010110001
1111111010001001
1111111010011111
0000000000000000