100000110
1111111111011101
1111111101000111
1111111101101010
1111110000001100
1111111111101001
111101111
1111110111011111
1111111000100101
1010011000
110011
11001111
10100110
1111110011111000
1111111101011110
1000011100
10011000
1001011001
100110101
1111111001010011
1111111001000011
1110011
1111111110111110
1111111100111001
1111110101010100
100110101
10001101010
1001010011
101001
11101
11
101
1111110110110100
100000101
100110010
1010110100
111000100
101001101
1111110111100101
10011001110
1101100100
1110110
1111111001010100
1111110011110110
110101010
10001010
1111111100000010
10101101100
1111111111101000
111111011
1111111010111001
1111111001001010
1111111010110010
1111111010010111
111100000
10011001
1111110101110100
1011011
110101011
101101101
1111110001010111
110000111
11000010
110001
1111010001
1111111100000010
1001000101
1111111010110111
110100001
110101011
110001111
1111111010001100
1000001100
111000001
111110100
1111110100010111
1111111111101000
1101011101
11001111
1101010
11001110
1011001000
1101111
1111111001010100
1111111011111101
110110
1111110100111110
1111111101001111
1111110100101111
1101111100
1111111111101100
11111100
10010011101
1010101011
1001100011
11011
10001111111
10010011010
1010011111
11001100100
1111111110010111
1011000
1111111001110100
1111111101000110
1110111001
100111001
100110101
1010111010
1111111011011110
1111111110101011
1111111011101001
1111110010111000
1111110110101100
1111111010010010
1111111001111101
1111101111111010
101000100
1010110
110100100
101000011
1101111011
10011001010
1110110011
1111111100111101
1010111001
10011000011
10011
10101100000
1111110110
10101010101
11001000011
111011011
100100010
1000110100
1001000100
10110011
1011001011
1111111110100100
110101000
11001
1111110111011101
1111111100000110
1011011010
1110000001
1111101100000001
1111111101110100
110111110
1101100101
11000101
10000110
111111101
1001000
111011000
1111001011
10110110000
10000011010
11011000110
10100111101
1010110010
1011000010
101011000
1000
1111111101100111
1111110011010010
1111111011011100
11011100
110100000
1111111100110011
1100010110
10110010
1111111101101111
11100111
1111111100101100
1111110001010111
1001011
10101
1010001
1111111111100100
1111101101111000
1011111110
1001110011
11001101
1111111000101100
110111001
1111111111000000
111001110
110111011
1111111110101011
1111110111110111
11111010
1111110010100110
1111110101001010
1111111110000011
100010011
1111111011111111
1110111110
1001011
110111101
10100000
1111110110101011
1111101111110011
10010000011
1111111001001000
1111111101101111
11000111
1111101111010001
101010
1111111111101110
1111110011111110
1111111111000111
1111110000001011
1111110101110000
1111111000011110
1111111100110010
1111110100000100
1111111100000110
1111111011110011
1111100110010110
1111101001101010
1111110000100110
1111101101001101
110110001
110001001
100011100
10110010
1111110101001001
1111111011111001
1111101111100100
10011000001
100101000
1111111111100010
100110000
1111111111111110
10011011
110111100
1111111001110011
1111111111110111
1111110000111001
10100010100
1111110111010000
1111111010111111
1111111100010100
1111111001111001
1111101011010010
1111110111011010
1111101101111111
1111110110100001
1111110010110111
1111110110011101
1111110011010110
1111110110000010
10110110
1011000
111110000
1111111001001011
1000010111
100111100
1100100
1100011011
1110010000
110101000
1111111100010100
1111110000101110
1111110101110001
1111110110101011
1111110110100101
1010111101
1111111001110010
1111110011010101
1111111110111101
1111101101100101
1111111111101001
1111101010011100
1111100011111000
1111111000100101
1111110111001010
1111111000101001
1111110111011100
1111111000111000
111110100
1001000001
110101110
1111110001011001
1111110110001100
1111110101000001
1111111010011101
1111111011111001
111101100
1111111101011111
1111111010010100
1111111000101001
1111110000000001
1111110011011001
1000110110
1101010010
1111111101001100
1111101110111010
1111101110101111
1111110000110110
1111110110100000
1101010
10111101
1111111101111101
111001000
1111111001111011
1111111100011100
1111101110000110
110010000
1000011111
100001100
11010011001
101111011
110111000
1111111001101001
11010
1111111001100101
1111111011010000
101101111
1101101001
11011010000
1010100000
10101010010
1111001101
1111111000110100
1111111101000110
100010000
1111111101100001
10010110101
10000011110
1010001010
1011100100
11001101
1111111110000001
1011001111
101010
101001110
1111110110000010
1111111110101000
101101110
1111111111100001
1111110110001011
1001000
1111110101110000
1000011
1111111100000101
1111111001110011
1011010
110100010
1000011100
1101011
1110101011
1111101101111011
1111111000100000
1111110110101101
100000000
101001011
1111111011100101
1111111101000111
10100110
10101100011
1100111101
1000101001
1111110011111101
10000010
1111111110011000
1111101110011001
1000010011
1111111111101100
1111111000001110
1111110010011100
1111110010011001
1111111001100101
1111111010011100
1111110100001000
1111111011011101
1001001
10101001
1111110110000111
1111111001100000
1111110010010011
1111111011111011
1111111010111110
1111110101001101
1101000000
1000011001
1100001010
1001010010
1111011010
10000101010
1111110111010011
1111111000000000
1111111101001011
1111111111100111
1111110111011010
1111111101110101
10110010
1111111000110000
111101010
10000
1111110000000110
1111110001110101
11110101
1111110001100111
1111110111100011
1001011011
1111111001000110
1111110101111001
1011001
1111111101111010
1111110001111111
1010010110
10000110
101110111
10001100101
10010011111
11000101100
110011111
1110000111
1111111101111110
1111111110000011
1111111101010100
1111110110011101
10011011
1111111110100011
1111111100110100
1111111110001110
1111110100101001
1111101101001010
1111101100000000
1111101011101101
1111111001011001
1111111101011001
101101111
1111111010111111
11000100
1111111111110001
1111110011100001
1111101100100000
1111111100111010
1111111011001101
10001101
1010110000
10001001111
110011010
10111110000
1001010101
101001011
1111111001110100
10100011
1111101100011110
1111111011011100
1111111001011001
1111111110111101
1101010
1111111100101011
1111110100001100
1111100111111000
1011110
1000111110
10110110
1111111001010010
1111110010110111
1111111100001101
1111110010111001
1111110011101010
1111110000111001
1111110001000000
10011011000
1111100110
1111111011101111
1100011101
1111111111101010
1110100100
1111110110001110
1111111011111110
1111111000011101
110101101
1111111011100000
1111111001010011
1010001000
1111110110111101
1111110011010010
1111110111100111
1111111001001001
1111111001000100
1111111101101101
1001010000
101011011
1001011
1111101110011100
1111100100111111
1111110011111001
1111100110001000
100011
1111111110111010
1111010110
101000000
1011100101
11010010
110110100
1111111101111001
1111111011101101
100010110
1001010011
1111111011000110
1110001
110100
1101010011
1111111110000100
1111110010001001
1111111110011110
10000
1111110101001100
1111111111111100
110010001
11100011011
1110111111
110101011
1111111001000110
111101
1000000001
1011100001
1101100011
1111111011001010
110010101
100110101
110001011
1111110110001101
111111100
1111111011010110
10110100
1001010100
100000001
11101001
101010
1000001010
1111110010010111
1010000111
101000111
1001111111
1010110101
1100101010
1100101110
10100011110
1111001110
1011000
1111111111001000
1001001011
1111111011110000
1111111111011010
101011110
1111111111011100
1111111111010001
1000010100
1000010100
1111111101010101
1111110100000100
1111110100110110
1111111101100010
101010100
1111111001101111
1111101111000011
1111111011101001
11110111111
1111111110100100
1111110101100010
1100000110
1011010011
100011000
1111101011
10101110011
10100010001
1100101011
11110100000
10010000111
1111000011
10011001
1100011100
1101101110
10010100
1000100001
101100100
1111111110000000
10101011
1111111000010111
1111111111110001
1111111001001001
1111101111100011
1111111010101011
1111111101000101
1111111100101100
1010110010
110101111
1111111011110000
1001001011
1001100010
11010001000
1111101110
1010100111
10101100111
1100010000
10001111010
1000100011
100101001
100001
110110011
1011111101
1111111101000011
10001100
1111110100011110
1111110101101001
1111110101110110
10011
10000100101
1111111001101010
11101
110101001
1010111100
10001101101
10001101100
1111111101100010
11000110
10000111000
10000000011
10011001101
11110001
1110011011
10000000111
10000100011
11011
1010111010
11111101
10110
1111111011001100
1111111001010000
1111110001101111
1111111100101101
1111110001111111
1010101
1111111111111000
1111111110101110
1111101011111111
1111100
1111111011011000
1111111111110000
1111111010111000
1111111111111010
1111110110111010
1111111110111111
1111110110010001
1111111111000101
1111110101110000
11010100
1111011
1000010001
1111111010101011
1111111111111001
100101101
100110010
10111111
111100
1010010
1111111110110001
1000000001
101101001
111010
100100
1111100111101111
11001010
1110001001
1111111110110110
11000010001
111110110
1011001100
100011
1111111101100011
10110110
1111111100000010
10000011001
1100001111
1111111010000001
1111101111101000
1111110111110001
1111111101111111
1100011
101101111
110101000
1000010100
101000010
1111110110111000
1001011110
1111111101010000
10111
1111110111111001
101000110
1100111
10101011
1011000
1111110011101101
1111111100011000
1111111011101000
1111111110000100
111010011
1111111000001000
1111111010111001
101001
1111111111010001
101000011
1111111100001101
1111101101011001
1111111101011010
1111111111010101
1000100100
1111111011011000
1111110101101010
100010101
111100000
1111110100110101
1111110101110110
1111110100101001
111111000
101001111
1111111110111001
101000110
1111101101001001
1111111010001001
1011101011
1111111000101011
1111110111101110
1111110111011110
10010100
1111111011101100
1111111001000000
1111111111010100
1111111000110011
1010011010
100000100
1111110100101111
11000101
1111111101101000
1111111101001000
0
111101101
1111111110110011
1000000111
1111111001101110
11011001
1100000111
1111111101001010
110001101
1001111011
1111111011011101
1111111110000010
110001100
1001111110
1111111010010100
1111110110011011
1111111111001000
11010
101010101
1111111111101000
1111111011010010
11111
1111111100111000
101101111
1111111110110011
11101000
1111110100011011
1101
1111111101001110
100000111
1111111110111100
10001111100
110010010
10001
1111111000011111
1111111011110000
10011011
1111110010000110
1111111101110110
1111111111010100
1111110110101111
1001011
1111110111000100
0000000000000000