1010010010
1000111110
1101010110
101000000
1111111101010001
1111110000010010
100110010
1111111101100011
111000001
101001011
1111101100010001
100000010
1111110011010010
111100010
1000110000
1111111110011100
1111111001100010
1111111011101011
1010100011
1011001
101010
10011000011
1111110011000111
110101100
1111111100000001
1111110000001000
110111000
1111111100111001
1111111110111100
1100000000
1111101
11100
11101000
1111111100101010
1111110111011000
11010101
1010000101
1010001010
1111111001111100
1111111000101001
100110000
1111111111010110
1111110111101111
1111111010010111
1110010010
1111110111000010
10111
1111110111100100
1111111110000100
1111110100100010
11101
1111111011101110
1111
1001011110
11000101
1111111011001000
100011100
11000100
1111101000100110
10110100
10000101110
1111111110101110
1111101111000100
100010111
1110100
1111111001100111
111011010
1011
111000100
1111111010110001
1111101101001010
1001011110
1111110110001110
1111111100111100
1111110111000000
1111110010010101
1111110101100000
1111110000011111
110000010
11001000
1111111110101101
1111111010001111
10001010110
111000110
1111111001010101
1111110100101010
101
11101111
1011110001
1110011010
1111111111100011
1111101100110111
10101000
110
1111111100000101
1111110111010000
1111110001110011
1111110110101010
1111110000111111
10011011
101110010
1111111001000111
1101100111
1111111000001101
1111111110100101
1010010111
1010001
1001011100
10100100110
1111110110100001
1111111011011110
1111111110111101
110010010
1111111111001000
1001010110
1001011011
1011101
1111101111011000
1111010
1111011
1111111000000011
1001101000
1111111000100111
1111110110000000
1111110101010001
10101011
1111111000101010
1111111001111010
111011100
1111111001111111
1111111100011110
1111111010010110
1000010011
11100100
10100100
1111101110111010
1111111000001100
1010110
1111110
1111110110010001
1111110110110101
1011100110
1010
110011100
11001010
1111111000110111
1111111110011111
1111111000010001
1111111001001110
1111110101100000
1111111100011011
1111100101010010
1111110101011001
1111101111100010
1111110011100111
11101111
1111111011110111
1111111001011100
1111101111101100
1110001
1111111100000010
10001001010
10001001100
10010101
101000001
10111
1000110011
1001011110
110100111
110000100
1111111010100101
1111111000101001
1001011
1111111100100100
1111110101010111
11110011
1111101010011000
1111101100001111
1111100011001110
1111101101010010
1111101000111101
1111100101110101
1111101110101010
1111110010000001
1111110100101001
1111111111011011
1111111000110111
1111110011100011
1010011
1111111001110001
10001101000
1111110101110111
1111111000101101
1111111000110111
101000110
1111111011000000
1001010110
1110110011
1011000100
110001011
1111111110000111
1111111011111000
1111111010000010
1111110110011111
1111101010100001
1111100111101111
1111101000010101
1111110100100001
1111101111110100
1111101100011110
1111111010000000
1111101110111110
1111111100010100
1111100111110011
1111111100100001
1111111011100000
1111111001100010
1111111101110000
10100101
1010100010
110110111
1111111111001011
1111110011010110
1111111100010001
1111111111001011
110101
110110
100111001
100110101
0
101
1111101111110010
1111111010111101
1111110111100111
1111100011110101
1111101011101110
1111110010100101
1111101011101000
100
1111111110110111
1111110110110001
111000101
1111111110011101
1111111100101111
1111110110111010
111000101
1101101100
1111111101101101
1111111001111001
1111111110010011
1111000101
101011011
101001110
11011111
1111110110010001
1111111011011010
1111111110101010
1111101100010011
10010101101
1111101111001101
1111100001111100
1111100100110001
1111110001100100
1111110100111100
1111101111111001
1111101100100111
1001101001
11000100001
11111000
1011001
101010111
110110
1111111101111011
11011010
1111110100010100
110110100
100101001
1111111011001011
1111111101010110
1101001011
1001010111
1111111101111100
1100000100
1111111001100110
100010111
110110011
1111110011011100
1111101000000100
1111101011000000
1111101111011000
1111111100011011
1111110111010010
111010101
1010110
1110001010
100001011000
1001000111
1100101001
1100100100
1111111110101100
1100100101
1111111001111110
1111111001010000
110111110
1000010101
10010100111
100010110
100110011
110000011
11100011
1111111011011100
110101111
10101110
1100101100
11110011
1111111110010011
1111101111100101
1111111011001111
1111111110110001
1100110111
100111001
1111111100001001
101100010
11000110001
1001000011
1111111100010110
1111111111110000
1111110101110110
1111110110101010
1111111011000110
1111111100010110
110011100
1110100
1101000101
1101110
1111111010001111
1111111110010011
111011010
1111111111101110
11010001001
1101110011
1111111110010000
1111111100111001
1111110100001100
1111110110100101
1111110000110111
10001101
1100111011
1111111101001101
1111111101101010
10010111101
11100000110
1111111100110001
1111111010010000
1111100111101110
1111101101100011
1111101011000100
1111111011000110
1111111001100101
1111101011001101
1100100111
1111110101111000
11100101
1111111001011101
101000010
111100
1111111010001101
1011010011
1111111010000100
1111111101101101
100010
1111110010111001
101011111
1111110111110110
110000000
111101100
1111111110000111
1100000
1111000111
1000100101
1001101010
1111110110110000
1111111000011110
1111101111101100
1111110111101111
1111101101010011
1111101111010011
1111110101110100
1010111111
10101000
100010111
1111111111000111
1111111101111111
11111111
100101
110100010
1001011111
110110
1111111110011001
1111110111110111
1000100100
1111111000001001
10001000000
1110110
1001011000
1111111001001100
100011011
10101111
10111010
1111100111010011
1111101001001010
1111111100110101
1111110101101111
100101011
1111110001100000
110100100
1111111101001100
10001
1010110
1111111110101100
1111110100100001
1111110110100011
1111111101000101
111111110
1111111100010100
1111111000100000
1111110111010000
1111110010111111
101110001
1011100
1111111100111101
1111110101100000
1111111100100101
1111111101010111
1111111100101111
100111101
10000000
1111110010011100
1111110110001100
1111110001010110
1111100110101001
1111111001011100
100110000
11110110
10010010
1111111100101011
1111111010101110
110100000
1111101100010011
1111110000000111
1001100
1111111001010000
11111011
1111111110011001
1111110101000111
1111110010010011
1111111010010000
1111110011010010
1111110010111000
1111110010011111
1111111001101011
1111111100100110
1111111001011101
11
1111111101001100
1111101100111100
1111101100000001
1111111011111000
1111110101110111
1111111110001011
1111110010100011
1111110011001011
1111110101111011
1111110110011101
1111101111110011
1111110011100101
10000011
11011110
10000
1101011010
111010010
111111111
1111110110010010
1111110000100011
1111101101101000
1111110001001101
1111111101111011
1111111111110101
101001011
1100111
1111110111101001
1111111011000111
1111101101001000
1111101111100010
1111110111100000
1111101110010011
1111111110010100
1111110011001011
1111111110000110
1111110111111101
101110
1111111000001011
101101011
1111111111000100
1111111101111111
100011010
101100110
111010
1111111110001000
10100110
101000000
10001100
1111111011100101
1111110011101010
1111110111011111
1111111110010100
1101000110
10010100011
1111110111110011
1111111011010100
1111101101010100
1111110011011100
1111110001001101
1111110011010011
1111111110001110
1111111111011100
1111111110101010
1111111101111010
1111111010011011
1011001
1111111000101110
1111111001011000
10011111
101000
1111111101000000
1111111000001100
1111111100010000
1111111001101000
1111101011101100
111000110
1111111110100111
101011
1010011010
10111110100
1110010000
10001101111
10010010001
100010101
1111100101001001
1111101000000011
1111101111010110
1111110011100101
1111101110100000
1111110101111001
110110110
1111101111100001
11000101
1111111110010100
1111110010111111
11001001
1010000101
1111110111000101
111010010
1111111001001000
1111110101011110
1110111
1111111100100110
1111110111100001
1111110110110010
1001110000
1111001
10100101
1111111100001000
1011110
1111111011011101
1111101111010011
1111110001010000
1111110000101101
1111110110111011
1011011
1000101
1111101110110000
1111111110101001
1111110110011100
1111101110101011
1111111100000101
100110011
111110011
1011011
1111111001010111
1111111001011111
11111010
1111111011000011
1001101101
1001101001
1111111000110010
101100
10010110
1111111111101010
1111111010100011
1111110011110000
1111111000011010
1111110111011010
1111110000000011
1111111100011000
1111101011110111
1111110100000001
1111111001010111
1111110011111000
11100010
1111111010011100
1111110111101000
100110110
110101
1111111010000101
10110010110
1011011110
1111110100101100
1111111011110100
1111111110111111
1111111000100000
1111111101110100
1111111101000101
1111110111110010
1111110101111000
1111111011110101
1111101111100101
1111111110011110
1111111001100010
1111110101000101
1111111011001111
1111111100110000
1111111110111101
1111111001011010
110100110
10100
1111111110101011
1111111100001010
1111111111011010
1111110111010000
1111101101011100
1111111100000000
1111111100010111
1111111111011000
1111110111100111
1001
11101001
1111111110001011
100111100
10010110
1011011001
1111111001100000
1111110111111111
1111111011001000
1111111000101011
1111101100001001
1111111010110100
1111110100110111
1111101100001101
1111110100010011
100001001
1010001100
1111110110001000
1111110110010110
1111111000100001
1111110011010001
10011010
1111
1111111110111001
1111111011110111
1111111011111000
111011000
111111101
1011101
1001111100
1111110110111011
1000010001
1100001101
1111111100101010
101110111
1111111100111100
1111101111110011
1010111100
1111111011010011
1111101100000000
1111110010111000
1111110110001111
101
1111111000111100
1111110100100001
1111111011010110
1010110101
1011010
1111111100001011
1111101111110011
1111111111010001
1111111101010001
111011000
10001
1111111111110001
1111111100101110
110110000
10101011011
11101
1111111001010111
1001100001
110001
110111110
100110010
1001000011
1111111110100100
1111111000110101
1111110101000110
1111111101110000
111011010
1100100010
1111110110010101
1111111101100110
1111111111000111
101011001
10001110010
1010001
1
111110000
1111111100101000
1011010101
100111001
101000111
10011
110010
101001001
1111111110011001
1010100010
1111111111010011
1110111101
1100001101
11001001
1111111100100000
1000101001
1111111100111001
1111110001100001
100111111
111111
11100110
101000
1111111111111010
1111111001000000
1111111111100000
1111111000010000
1001101
1111111111100111
1111111101001111
101010010
1111111011110010
1111111100111000
1111011001
1010010101
11111101
110011101
1111111101000101
1101110001
111101011
11000
110010011
101011000
1111110111101010
1111111001101110
1111111110011100
1111110001111000
1111101000110011
1010001100
1111111001111000
1111111011011111
1111101111011011
1111110011010111
1111111111000001
1010110
10110111
1011010
1010001000
1111111011100010
100000
10111000
1111111101100011
0000000000000000