1111110101011101
10111
1111111111001110
1100110111
1111111011100000
110100110
101100011
1111110010010111
1111111011110000
1111111100100101
10000100
1111110010011100
10100110
1110001
10011100001
1111111111100111
1111110011101011
1111111100100001
1001011010
1111111111101010
1111111001001110
111111110
10110101
1111111011010010
1111111000100000
11011
101111101
1111111000101110
1111111011001111
1111110100110100
1111111101101100
1000110000
1010000010
1000001110
1111110010001010
1111111101111100
1111111100011100
1111111101101101
1010110101
1110000100
1111111011000001
1111111000100100
1010110000
1011101001
10101000
110000001
10110000
1111110011110000
1000100101
1110010
11001
1111110110111100
1111110111001111
1111111001111010
1001100111
1111111110011101
1111110111001101
1111100101000010
10101000
1111110010101101
1010101101
111111111
1111101010001010
1111111010011000
1111110110110111
1111111011101111
1111110001111100
101101101
1111110010000011
1111110110100000
1111111001101001
1101010
10011000
1111111001100001
1111110110001100
1111111100110001
1111111101100111
1111111001111001
110110000
101011
10001
1010000101
1111111101001010
1111111110000110
1001001110
1111111000111101
1111111101100000
1111110101010011
1111110110011100
1111110001100000
1111111100001100
1111111111110010
1111111011000111
110011000
1111110110110011
1111110110010111
1010100011
10110101
10001010100
1111111010001101
101011101
1111110001100011
11110100
1111111111111010
1111111011100111
10011001
111000110
1111110110100110
1111000
11100111
1111110011111011
1011011011
111001100
1000010111
101111110
1101100
1000110110
1101001
100110101
1111111111000100
10011100
1111110101100110
1111110101110011
1111111011100001
110111000
101010
1111111010001001
1010011110
1111111100111001
101110001
110011001
100110000
1111111110011111
1111100
1111111000101111
10010100
1111111110101011
1010001001
1110011011
101000001
1010101110
1111111111101110
1111111001100100
1111110100101111
100001111
11100
10000001110
1111110100111001
11110000
1010001
11100
111111110
1111111000010110
1010110111
1111111101001111
1111110010110101
1111110011101011
10010110
1111110101011110
111011001
1111110011101101
101
1111100
1001110000
101101011
1111110010101111
1111111000010101
1111111011110010
100100010
1111111110111110
1111111101010101
10110
1111111111010001
1100001001
1111110010011110
1111110100101000
101111
1111110101110011
1001
1000111010
1111111110110001
1111111100001001
1011000011
100011010
1111110010001010
1111110110100000
1111101100110101
1111111100110101
1111111100001100
1111111110111011
11011101
110111111
111010010
10001
1111110110001110
1111101101010111
1111111110000111
1111110100010110
1111110001101001
1010100101
100100100
101101110
1001010111
1111111110001110
1111111000110001
1111111100100111
1111111101000101
1111110001000000
1111111000011110
1111110101111110
11101011
1111111100110111
1111110100000010
110101010
1111111011111101
1111111101010010
1111110111001110
1111111111111010
100011111
1010001
1101110000
110011110
111011110
101101010
1111111110111101
1111111010001111
1111110001101010
1111110011101100
1111101111111111
101100110
11101000
1111111101011001
1111110
1111111101010000
1111111101001111
1111111000011110
1111111111000100
1111111111111010
1111111001010000
101100110
1111110111011110
1111111111011011
1111111110110110
1111111001110011
100000000
1111111110111101
101110000
1111111000000010
100010100
1111110111011011
11101001
1000001000
1011
1110000010
1111111011001101
1111111110110110
110011001
1111111101101010
1010111001
1111111011010010
1111111000011100
10110111
1111111010001110
101000100
1111111001111001
1111111101001000
1111111101101010
1111111111010010
1111110110101101
1111111101100001
1111111101010001
1001010111
11110001
1010001010
1010
111001010
1111111110100001
1111111011100110
1111111101010011
1111111101100100
1011010110
101001110
1000100001
1111100111000111
1111110110111001
1110011
1111111110110010
1111111001011111
1111000
1111111010001010
1111111101010110
1111111000000101
1011011
1000101
1111111100110000
1111111000110111
111100011
11110
1111111111000110
1111111110000110
1111111011000010
1111110100111110
101011011
10100111
101100001
1111111101001011
1111111101001000
10110010
110100011
1111111010110111
11110111
1111111100111000
101101110
1111111101010101
1010110101
1111111110101110
1111111010110101
101011100
1111111000100010
1111110110011001
1111111000001111
110000100
1111101011101011
1010011001
1111111111111110
1000100100
10001110
1110
1111101101111100
1111111000010101
1111110111010011
1011001
1111111011001000
1111110110110110
111110110
1111000101
1011100001
1010101011
10001101110
10010010
1111111111010111
101010110
1111111101110000
1111111100101111
101000100
1111111110111101
101010
1111111110101101
10111011
111101001
11
1111111111111001
1111111011001111
1111111010111011
1111110110000100
10111010
1111110100011010
1100011100
1111110101000100
111110111
10000001
11101101
1111111110100001
1111110010100110
1111110010111011
111010001
10000010100
1111111011110101
11010
1000110011
1111111001000110
10101000
1000111
10100100
110110
1111111101101000
1111111011010111
1111111011011000
1111110101011101
1111111110110010
1111110110011011
1111111100000100
100110111
1111111011011101
1100011
1111111001101111
1111111010101110
1111111011111001
1111110111110001
1111111011101111
1111111110001100
1000011101
1111111101000100
1111111101101010
1111110101010101
1011101111
1111101
101101010
101000000
1111111100010100
11000001
100011111
110110100
101011111
1111111100001010
100110011
1111111101010110
1100010
1111110110101100
1000011101
1111101100000000
1111110000000101
1000010101
1111110000000100
1100000101
1111110011111001
1111111110011010
1111111000110110
10001
1111111100011100
1111111001110011
111010010
1111111110000110
10110011
1011001000
1111111000110011
11111011
1010101001
1111111010000100
1111110111011111
1111110011011111
1001011111
100110011
1111101111110001
101001001
1111111011001100
1111101010011111
1111111110010110
1111110110011111
11001100
10100001
1111111101011011
101100101
1111110010010110
10011110010
1111111000001101
1111110000001001
1111011
1111110100110110
1000110
111010
100110
1111111001111111
1111110011101111
100011
1111111111110001
111100110
1111111111111010
1111111000101011
1111110100110111
1111111001110100
1111110101011011
1111111100010000
1011101
100001111
1111111000011110
10111001
1000100011
1000001011
1111111000000110
1111111010011011
1000111010
1111110110111010
1111110111010111
1011110
1111111110100000
11111000
1111111011001010
1111110000100101
1111101010110111
10111001
1000111
1111111011010111
1111111101010001
100111
1111111001100110
1111111101101000
1111111000001001
1111111101000000
1111111111111100
1111111001000000
1111111111001100
1111111001111110
1111111110111011
1111111001111110
1111010
1111110011100010
1111110100111001
1111111110011000
1111111101001000
111001
10010101110
100011011
11000011
100010101
1111111010011101
1111111111011100
101110110
1110000
11100010
1111111010010001
1110010010
110011101
1111110110011001
110001001
1111111110100001
1111111001100010
11011010
1111110001011010
1111101111110010
111000010
1111111001110001
11101000
1111110010011100
1110010
11011000
1111111100000100
100100011
1111111100011110
1111111110001000
111010101
11111001
1101011
1001110101
1111110001100110
11100000
1111110000000000
111010010
1001111100
1111111001100101
11011001
1111111100101001
1111111010001001
11000
101100101
1111111001001101
1111111110100000
1111111110001100
1111111000101001
1111111011100100
1111110000001110
100101110
1111111111000100
1111111100100011
11101111
11100000
1011000010
1111111111101011
1100101001
1111111011010001
1000101011
111010110
1111111110001000
1111111011001100
1111111001111000
10110011
1111111010111111
1111111100001111
1111111000100000
1111110101101101
1111111001001001
1111110101111010
1111110010101010
1010111
1111111101110110
1111111000100110
1100010000
1111111010111000
11111
10011001
10010011
101101011
1111110101110111
1000101000
100100011
1001000011
1000110011
0
1111111111011111
101100011
1111110011111100
1111111111111100
1111100000
1111111111101011
1110011001
1111111100101001
1111111010010000
100001100
100110110
1111111011011101
1111110111110010
1111111111001100
1111110100110100
10100
1111111000110001
1001001001
1111111000010001
1111110011111100
110011
110100111
1111110100111000
1001
1111111111011001
11111000
101001111
1100
1111110111000100
100001001
1000010
1111110011101010
1101000111
1111110100110001
1111111101000011
1011001100
1111111111100101
1111110010011000
11110001
1100001001
1111110101101101
111101
101111000
1111110000111110
1011001001
110101
1111111101011011
1111110001100010
1111111111011000
111011
1111111110110001
1111100
1111111111001011
1111010
1111100110101001
1111111000111000
1001101011
1111111111011001
10010110
1111111011001010
111010010
1111111001010100
1111111110111010
1111111011011111
100010011
1111111101101000
1111111101101111
1111111110110101
1111111111101100
101001000
1101010100
1110010
1111111000000000
11100110
1011110110
111101101
1111110110111111
1111110000
1111110110101101
1111111101001101
1111110100110000
100011110
1111110101010010
1111110111101001
100111011
1111111100101010
10111100
1111110011110001
1111111100110011
1111111101000101
1111110101010001
10100001
1010001100
1111111001000000
10001001
1111101101100111
1000001
1111111000011110
101
10111011
111110001
1111111110111110
1111110110001011
10001011
1000010101
1111111001011011
1111111111111011
1001010
1111111011110111
1111110001010011
101101000
1111110111001110
1111111111000011
1111110101111010
100010111
10101001101
1000011010
1111111100100111
1111111111111100
1111111110011111
1111111000001001
110010101
1111110000000111
1111111001000100
1111111000101010
101010010
11011101
11000000
1111111011101011
1111110011110011
101111010
1111111100110111
1111110011100100
1111111000010010
111110011
1111111000100001
1011100100
111001110
1111111010001101
110001011
1111110011111001
1111111110111100
1111111001000011
110110010
1111010
1111101111011011
110101
1001011
10010110
10110110
110011100
1111111110010000
1111110100001111
10010000
1100000111
100010
1111111101000001
10101
1111111011011000
1111111100011111
1111111101110111
111111110
10011000110
1111110010011110
1111111101010011
1111111000111011
1111111011100101
1111111010011000
10110001
1000111000
1111111000001100
100001011
1111111110000000
1001111001
1111111000011110
1001101100
1111110101010000
1111111011111111
1111111011100011
1111111110111110
1111111010010010
1111110111101111
110101110
1111111100101010
1111111010010110
1111111110100011
1111111111100110
100100011
1111111001101111
1101001
1111101110000111
1111111111100001
11
1111111101000111
10000010011
1111111100011100
0000000000000000