100011001
1001100000
1111111001011100
1111111010001011
1111111011101000
1111111111010001
1111111011011011
1111110111111010
1111111101011001
100
1111111110101101
10111100110
1000111000
111001101
110011000
101111
1100000011
100100010
1110111001
100101101
1111111010010101
1111111011110000
111010011
1111110000010111
1000000
1000001
1111111101110010
111011110
1111110111101011
10111101
100011001
1100101
1010001010
1111110010010111
1010011011
1111111101001111
101011000
1111110100100001
101000100
1111111111011010
11010001
1111111011000100
1111110111010111
101111111
100100100
1111111011010011
1111111010101010
1110
1111111100000000
1111111101100111
111110100
1111111101110101
1111111000101001
1111111111000101
1111101101110110
101110001
10010001
1111111001111101
1111110010001111
11011100
1111111100001110
1111111010100010
110010110
1111110000001111
1001001101
1101010010
1111110001010000
1111111101110001
111010100
1111111111001000
1111100
1111111001010110
10111101
101111111
10001
1001010
1111110000110011
1111110110100001
101001011
1111111110010011
1111111001110100
1111111100111001
101011
100001
1111111111100001
1111111011111000
1100100001
101000110
1010
11111110
1001101111
1000001010
100011111
1111111110010100
101011010
1111110110011110
1111111011001100
1111111111101001
1111110111100000
1111110110011101
1111111100011111
1001100110
1110010001
11011
111111010
101011101
111011000
11101110
1111111010111101
1111111000100110
110000010
1010110
101010011
110011111
101010000
1111111000110101
1000110010
100001110
1111110010001001
1110001001
1111110101101101
1111111110111111
1010001010
1111110010011100
1111011
1111111000010011
1111101111110001
1111110000110001
1111111000101010
1111111110001000
1101011010
1111111011111011
110010011
1111000001
101000001
1111111000101101
111110100
110111010
1111111000001011
1111110100111000
1111111001011010
101011
1111111111001101
1111110111011101
1111111111111011
11101010
10010
1111111000010000
1100
1111110110101001
1111110000000111
1111110011100000
1111110110100100
1111110101111110
1111101111001111
1111111111110011
1111100110000100
1111110111000111
1111111010111001
1000000101
11000011
1100111010
110110010
1111111111011101
1111110111101111
11001
1111110110101110
1111111111001001
1111111010101011
1111110011101110
10011000
10010001010
1111111110001111
1100000
1111111010010001
1111110100011000
1111101011010101
1111110110011111
1111101001011100
100000001
1111110101011001
101001110
1000000001
1010001000
1100100100
1111111100011010
101010101
1111111100000110
1111111011001101
1111111100010011
1000100010
1111111011111001
1111111000010111
1111110100111010
1111111100110101
1111111111111101
1111111111100000
10100001
1111111011010100
110001001
100
1111111101010111
1111111101101101
1111111001111101
1111110111111000
1111110010100111
1111111101010001
1111110101000011
1111101111011110
1111111110001100
110101001
1111111111111001
1111110010001011
1111110101011100
1111111100011110
1111101101010100
1111110110100100
1111111011100101
1111
10001011
1111110011011010
1111100010100000
10011111110
1111111111101100
110011001
1111111100001010
1111111110001011
1111110000001101
1111111110000000
1111111000010101
1111101111110011
1111101110111011
1111101111010111
1111111110011011
1111111011010011
1111110011011011
1111111001000000
1111110100000111
1111111001111000
1111111010110111
1111110010000010
1111111000000000
1111111100111010
1111101010110011
1111110010110100
1111111110001111
1111101000001001
1111110101011101
11111010
1111110101010111
100110011
1111111011110011
1000001010
1111111001101000
1111111100110001
1111111010001000
111110100
1111110101011101
1111110100110100
1111110001111010
1111111010111011
1111111101001011
1111111011111100
1111110010011001
1111110110100111
1111111000001111
1111110000110011
1111100111101111
1111101010111011
1111101011001001
1111101110101001
1111101101111110
1111110010101001
1111101111001001
1111110001010101
1111111111001010
1111101111010011
1010100
1111110110111000
110101011
1111111010110110
1110100110
1111110010010000
1111110011000001
1000001100
1111111111101111
101111001
110001110
1011110
1111110101011100
1111110011101111
1111101111010110
1111110010010010
1111100110100000
1111100000101111
1111011010001010
1111100000010100
1111110011001100
1111111000000110
1111111100110011
1111110011100011
1111111101011011
1111111010110110
1111111000010001
1111111101011011
10000111010
101011010
110000000
1011110111
1111111010000011
10001
10010001100
1100010100
11011010
100010011
1101111001
1000010001
1111111001111100
1110
1101010
1111111001010001
10000001001
10010110001
10111111100
1111111110110111
1111110110100100
1111111011010111
1111111101001101
10011101000
100000110
100110111
10011011100
111011100
1000101100
1111111010010010
100001000
1111011
1111110010100110
10111100
1001010000
1001001111
101100011
10010011011
10011000111
1101000100
11110111
1110111011
110001
10010011111
100110001010
100110110110
10111110011
110111101
101001010
1011111010
1011111111
1101010010
10110110010
11000101001
10010000101
1000000110
1111110010010111
1111101111010101
110000101
1101100001
1111111010111000
1111111110010010
1010111111
100111111
1011001001
10110001110
111001011
10111100101
110001100
10010000110
10111000111
11101001110
100101001100
100000110111
11100100110
10110000100
110111000
11011010
10010111010
10100110010
10010001110
1110100
1000001110
100001101
1011010100
1111110111100011
111110111
1111101111001101
1111111100101011
1111111010011011
110111101
110110010
111101011
11101011101
10111010101
1000111001
1110110010
1011111011
100000100100
100001000001
10101110111
11000111100
10100010110
11100000100
1011100010
1110000110
10011010101
1111111111101011
1111111001000001
1111111010011100
1111101111001101
1110001
100001010
1111111110011000
1111111001000000
1001100
110000100
1111111010111100
11010
110001111
101011101
10100111
111000001
111110
11101110010
10000101010
11001010001
111000001
11101011110
100110111111
10101100010
11001011011
10111100010
1111110110100110
1111111001100011
1111101101010010
1111110000110110
1011001010
1111111111101110
100111101
1111110000001011
1111111100011100
1111111101001011
1111111111001011
111011000
10001011
111001110
110011000
100101101
10010
111011111
10101000101
11000000111
10110101110
1011001010
1110100110
10101100000
10011000101
1100000110
1111100111
1000010010
1111110011100101
1111110000001011
1111101101111110
1111101101011011
10110001
1111111111110000
101010111
100001001
10000100
1111101111100100
1111111001001110
1111111100101010
1111110110110000
1011111101
1111110000000011
1111101101111010
1111111110000101
1111110110
10001000010
10000010001
11111101
1100010001
10010001010
11000010011
1101001100
1100011100
11001111
1111110100100110
1111111011001001
1111111100011101
10011100
1000100101
10010101
1001011101
1111110101010011
111010
1111110111101111
10000111
1111111111001110
1111111000011011
1111111110001010
10000101010
1111111101011100
1111100110110001
1111111010000010
10100010
1110000100
10101111100
1111100111
1111111111010000
1001111100
1100010010
10001011
110001010
1111111111011110
1111111000101001
1111111010001100
1111110111010000
100010101
1111111100001100
1111101011010000
1111111101001100
1111111011101110
1010011001
1111111111010110
1111111011011100
1111110101110100
1111110001010110
10011011
1111111100101001
1111101100101000
1111110010110111
1111100111011101
1111100110010100
1111111011011100
1111111111110001
1111101010010001
110000001
1111110010100011
1111101000010011
1111100111000110
1111110100101110
1111111010010110
1111111010110010
101000
101011000
1111111100011000
1111111111111111
1111100100111110
1111110010011011
1111110100010101
1111111110010011
111000000
1111110111100100
1011100
1011000010
1111111100110111
100010
1111110001011001
1111111010000010
1111101011111010
1111100010010011
1111101010111111
1111100111101111
1111100010100111
1111010100011010
1111101010110110
1111100011101111
1011011
1111111011111100
1000001111
110010001
110110100
111111110
110101
1111111001101101
1111110110111111
10110000
1111111000100101
1111111100111010
1000010
1011101
1011011
111001101
1000011
1001011010
1111111000110010
1111110000010010
1111101111011011
1111110100111101
1111100000001100
1111100001011011
1111110001011011
1111110111100010
1111111110111010
1111111010010111
1111101111101101
1111110110010000
100111
1001110100
1010110111
111000
101011011
1111111001000111
1111111101110001
1111111010100011
1111111110011011
100110
1111110111001011
1111111110110010
1111111110010101
1111110010010000
100110000
1111101101101111
1011000101
1111110011010111
1111111101110011
1111110011110110
1111101010100001
1111110010000100
1111110011101001
1111111100000000
1111111001101010
1111111001010101
1111111111011011
1111111001010101
1111111111010101
1001111
1111110100111110
1111111101111110
110111001
1111111011010111
1111110101101110
10001001010
1111111101011000
1111111111110011
1111111001000101
1111110111011110
100100101
1010011101
11000100
1111110010110010
11101000
1001101
1111110110111111
1111111000100111
11000000
1111111001001001
101000010
1111111111010110
1111111001010101
1111111110011011
1111110101110011
1111110110101101
1011010011
1111111000100110
1111111100111000
11001110
10001110100
1101110100
110101110
10010101011
10000011110
1111111010110100
1011000110
1010011011
1000110101
11101001111
11001011110
1001110111
1111110001110101
1111110011011000
1111111011011100
10111101
1000000110
10010001
1101010100
11010111
1111111100011101
1111110101010111
1111111001110011
1111101111110111
11000000
1111111110111100
110011000
1011001110
100111000
1011101111
10110
1111111011101101
10111000
1111101110000011
1011000110
1111111101111100
110101100
110110010
1011110110
1000101011
1010100110
1111110111111001
1111110111001010
1111111110110001
1111111100100011
1111111100000111
1000110001
1111111001000010
111111011
1000000011
1111111011011001
1111111111010000
10000
1111111100001101
1111111000110000
100011100
11001110
110000110
1111111101001010
1111111101010000
100101100
1111110111110000
100111011
1111110000100011
1111111010000101
1111110111000111
1111110000110001
1111111111110001
10010000
1111111101101110
1111111100111101
1001001110
1111111110011101
1111111111011100
10000100
101011011
1010010
11011111
1010001
1111101000011110
1111101011010100
101011010
1111110000011001
100100111
1100
101011010
1110010010
1111110110010100
10001010111
1000000010
1111110001010000
1111111001110010
1111111100111010
101101111
10110110
1110
1111111010000101
110110101
1010100011
1111111110110100
1111111000100011
1111111101110100
111011111
100001001
1111111111001110
1011000111
10101111
1111111000110010
1111110100011100
1111111110011001
1111110100111110
1111111010111100
1000110100
1001000010
1111111111010100
1111111000111110
10010
1110001
10110011
11000001
0000000000000000