1111110000101111
100000011101
10000000000
1111100010011010
100101010001
11000011010
1111101001011100
1111110111111010
1111101111000001
1111110111100110
1111100110111001
1111110110000101
1111010001110110
1111011001001001
101000011
1111110011111000
1111110010100100
10110111110
111000100001
1111011010100110
0000000000000000