110000010110
1111100011001111
110000111000
1111111100011001
1111111000000110
1111011101111100
1111101001010101
1111110010101111
1111111100100010
110100101011
1011111001
1111101011010101
1111011100011010
1111101000111111
1001010110
1111100110110001
110101110010
1111101101101111
1111111000110111
1111011100100010
0000000000000000