110
1000000000
110110000
1111110111011100
110001001
110011
1010100011
1000110
1111111110001101
101111101
1011001111
111001101
110111011
1111111011111110
100000111
101100
1111111100100101
11101110
1111111100000111
1111111101010001
110
1111111001100011
1111111110010010
1111111101011011
101110011
1000100011
1111110110101100
1111111000011111
11011110
1111111101010100
111010011
1111111101001010
1111111100010001
101100
1111111000110100
1011011001
10001110110
11000010
1100000100
1010100001
1111111000101101
1111110010001010
1111111001001000
1111110111001110
1111110010100011
10000001
1111110010111011
1111110101110000
1111110111010100
1111111101101110
1111111111001011
1111111100010001
10000001110
1111111001000100
1111111100101110
1111111100100100
10100000010
1000001011
101010100
101010111
1111111011110101
1111111101010100
11100110
100000001
1010100010
1111111101100010
1111111100110010
1111110001100000
100011111
1110011110
1111110111000010
1111111011011110
1111110101110011
1000100100
110111011
11110110
111101
111010011
10
1011111100
100111000
1010011010
101100
1000010100
1010111001
1100011010
1111111001100110
1111111001101110
11001101
11100111
1111110011111011
1111111110011010
1111111101010001
100101110
101101
1111110111110011
1110101011
10000011
1001100101
101000110
100110000
1111111101001010
1111111010000110
1111111011000111
1111111011110010
1111111011100101
111001001
1111111101100001
1011001111
1111111000011011
100110011
1111110111011001
101001101
110011
111010
1111111101110100
1111111000001011
1010101011
1111111010001011
1111111001011010
1111111010111111
1110111000
1111111111011000
10110100110
1110001
1111110000100011
1111111100111011
1111110111011010
1111111100111110
1011001010
10110100
1111111111100111
101000100
1111110011010100
110000111
1111110001100100
1001110111
1011100100
1111010
1111110111111100
11111011
1111111011000101
1111110100111010
11100010
1111110100110110
1111111110100000
1111111000111011
1111110000100111
100111110
1111111101111100
1111101110011100
1001000111
111110011
1111111101111111
1111111110001111
1111111101011000
1100101
11000111
1111111101101000
1111111011101101
100101101
1111111001011100
1111111101000000
100001
1111111101101011
1111110101110000
10011011
1111111101100000
1111111011011011
1111111001010111
1110110
1011000
10011001110
1111110111101101
10101
1111111011000111
11110100
100111111
100111101
1111110101101111
1111111001000111
1111111010011000
111101011
111
1001100111
101110110
1111111011011011
1111111011110101
1111110000100000
111010010
10110010
1111111011001010
1100111110
1000000
1100000110
11000111
1111111111011100
1111111100101000
1100010101
1111111100110010
101111110
100101100
1011011000
1010110000
100100111
1111111000011011
1011001011
111011101
1111111110000010
1110100101
1110001111
111001011
10010111
1111111110001110
1111111110110110
11100111
1111111111100110
1111110001011111
111010011
100100100
1111111011101011
1111111111111001
1000001101
1111111000110011
1111111101001010
1111111110110000
1111111101000010
1011001101
1111110100111100
1111110101101100
10001010
1001011101
1111111010000001
1011
1100000011
1111111100111101
1001111001
1111001
1111111011111110
1000010
1101100000
111101
1101111
1111111110110101
1001111
100011101
1111111011001100
100001011
1111111000000100
1111101101101011
1111101110011111
1001000101
100111000
1110101000
1111110111101010
11011101
1111110101011001
1111111100100000
1111111111
1111111001011011
1111111111011011
10100100
100001100
11001010
1111111111101011
11000101
1111111111001110
100101111
1111111100011111
1011000101
1011000110
1101110010
110000
1010111100
111111110
10010111
1001110000
1111110111101011
11000001101
1010001110
1111111110001111
110001110
10101000010
10110111
1111110111000111
101111010
11100010
11100101
1000000
110110101
1111111100010011
1111110110101101
1010110011
111001101
10000110
1111111010010001
1110001011
1111111001000111
11111010
101110000
1111111101011101
110110000
1111111111110001
1000110111
1111110110110111
1010000
1111111011111011
1111111111000111
1111111110000001
1111111101001010
11111110
1111110000011110
1111111110100000
1011010001
110000110
1010000010
1111111100001100
100101111
111101101
1000000001
1111111010110000
110010
1111111101010110
1011000
110011100
1001100010
101000
11110101
10001110
100110000
1100010100
10100111
1111111100101111
1111111010000011
1111111011000000
1001
110101101
1111110111110010
1011000000
110011101
110
110010000
1111110001111100
1111111111110101
1111111001101000
1001010111
101101010
1001110010
1011011000
10110101
1111111010111010
11000001
1110000000
1010010
1111111101110000
10001101000
1011101001
1111111111100101
1111111011101000
1000111
1111111100111111
11100101
1111101010110110
11011111
1111110010000000
111001000
1111111110111100
1100
1010000111
1001100010
111001010
1111110101010010
10000110100
101110100
1111110100010111
101110110
111011110
1010111010
1000010
1000101110
11110101
1111111101000010
1111111110000011
1100001110
1111111101011110
1111111000111010
111011011
1111111100000111
1010011000
100011101
11111111
1111111111010011
1111110010011011
1001110100
1111111011111011
1111111000100101
1110101111
1111110111011000
1111111011000100
1000000011
1000011001
1111111011001110
1111111000011101
1111111101101001
1001000110
1010100100
1111111001000010
10011100010
10101010
1100000
101100110
1111111111011001
11101000
1111111111100111
1100111
11000
1011010000
1111111101011011
11100000
101100
1100010
110110
11111101
1010111100
1110101
1111111011101001
111101100
110101110
1000001001
100001001
1111110010011100
1111111110010010
1111111000000100
101100001
1011100
1111111001111110
101101100
1111111101001111
1111110101001010
111000100
101101
1111111110001110
11101100
100101101
1111111110100101
1111111111110101
1111111110111100
1111111010100111
110
10000011
1111111101101001
1000100001
110000
10000110101
1111111110101000
101100100
1100100
110101011
110000011
1111111101100001
1001110111
1100001
1011011001
10000010011
11101110
101110100
11101111
100101001
1111111110001111
101101
1111111001110011
1110010010
101100110
1111110101000100
1111111110000011
1111110110100111
1111111101001100
111111110
10101
1111111010110101
1111111011010000
1111111000101011
1111111011001111
101110001
1111111111010110
1111111011010000
101100111
1011101
111110010
1111110100011110
1111111011011111
1111111011101011
11110101
100100000
1001110100
1111111001111101
101100
1000110
11111000
1011010001
101001011
1011011011
1111111100110010
110111001
1010000010
1111111101101110
1101101
1111111000010110
1001010011
101001000
1000000
1111111111010100
1111110111110010
0
1111001010
1011100
1001
1011001000
100010101
1001011101
1111111101101110
1111111100100011
10111001
1101000100
1101000011
1111001
11110100
1111111111011010
11001001
1111111111000111
101010000
1111111101100000
1111111001011111
1111101110011001
1111111011010110
101000001
110001111
11111110
1110
10100111
1111110100101000
10010110
1101001101
10011101
10001101100
1110100000
1111111010011100
1100010101
1011100010
10
100010011
1111111000010010
1111111010100100
10110
1000
1111110111010000
1111111101111010
111110
1000110010
101
11111001
1111111011010101
1111110001001100
1111111011011001
1111111100011101
1111111110010100
1111110101111001
1111110101000110
110010101
10101011
1011000010
1111111001111111
101011111
1110111100
1100001101
1111111111100101
1100100111
111000
101100101
10101001
10110100
1111111100000101
11010000
1111111100000111
110000111
1111111001010001
110100100
100101110
1111111101010000
1111101111000001
1111111001010011
1111111110011000
1111111101101011
101101001
1011100100
1001110111
10000111
1111111010100011
1111110101011001
110110000
1111110110111101
1111111011001011
10100000001
1111001001
111111
1110100101
110110011
10000000101
10110
10100010
101010010
1111111111101110
110110101
1111111111100010
100010000
1111111111000011
100111000
1111111001111111
1111111010111011
1111111000010011
1111111001000011
11000100
1111111000110100
1011011001
1111111110000110
101011101
1011001001
1001001101
10011111
1110101100
110
101010101
10011101
1111110111101100
1111111100110110
1111110100100101
101001111
101000111
1110111001
1111100111011000
1111011010
10110010
1111110111011111
1111110111111101
1111111101011101
100110101
1111110100010001
1010100110
11001010
1111111101111100
100111101
10011111000
101100110
100000001
11100
1011110100
100111
1001011011
1101110100
1110101000
1111111100101001
1001101101
1111111001010100
1111111100000010
101010111
1111101101110001
1111111001011101
1111111010000011
10011001
1110111110
1111110001101011
1100101100
1111110010000100
10001001101
1001011011
1001101001
1111110000000001
1111111000100101
1111110101001001
10001110
11001010
1111111111011101
1111110110000100
1001111011
1111111
111100
1111111110000011
1111111101010100
11011110
1111111000011100
1110110111
10001000100
1011000010
1111111101011101
1111110011100101
1111111010100100
11110110
1111111010111100
1111111100000110
111000110
111001100
1111110001110110
0
101111101
1111110101000100
110000111
1111110000010100
1111111110111000
100010110
1001100
1111111111111100
1111111101101101
1111111011100101
1111111110010011
1111110100101110
1011010111
1000010101
10001010
111100010
1111110011110011
1111111101100011
1111101101111010
1111111101100110
1111111010100110
1101011001
1111110010101110
1001010011
1011001011
1111111011010000
1111111111111011
1111111001101101
1000001111
1100110100
1111111101011101
1111111111101001
1111111000101010
1111110110000001
1111111100000100
1010101100
1111111010100100
111110110
1001111010
111111010
1111111011101101
110101100
110100
1111111010011011
1101000101
1111111000100111
1111111001010011
1111111101011111
1111111100110111
1111110000101101
11101100
1111111011110100
110001010
110110111
1111111110000111
1000001
1111111111001010
10110101
1100100101
1000001100
1111111011011110
1111111000101010
11000111
1111110111000010
1111110010111001
1111110000000010
11010000
101000
11011111
1111111001001101
1111111110011001
10000111001
10010011100
100010011
10101000
1111111010010110
1101001
1110111001
1111111100111011
1001011100
1111111110110101
