1101100
1111101101001000
110011110
101110011
1101100111
1111101111011100
1111110101000000
1111110101011010
110001010
1111110111010100
1001000101
1101010011
1111111001011111
10100111
1111101100010011
110001010
11101001
1111111101100011
1111111000110011
1111111000111100
1111110001011101
1111111011001101
11110001
1111110111001010
11100111
110000010
1111111001101011
1111110101000000
1111111100110100
1111110111110100
1111111101100110
100111110
110001100
1111111000001111
1111110010010110
1111101111111110
1111111011000010
1111101101100100
1111111110101110
1010010010
1111111110001101
1111111010001011
1010001
1111111100000110
101001
1001011110
1111110101001001
111011111
1111111001010110
110111110
11100101110
1111110100110101
1111110111000001
1111110010101101
111011111
1001101001
101011111
11101
1011111001
1111111110001000
1111111101100111
1010010000
1111110110110100
1111111110101000
1111111011101011
1111111110000100
111100001
1111110111110011
10010101
111111100
1111111010000010
1111101111111000
1111111111111101
1111111110011011
11010100
1101010001
10000010
1111111111100100
1110000110
1111111010100001
11000001
1111101111000000
1111110010101111
1111111001001100
1111111100010101
101110001
1111110101101100
1111111110110101
1111111010001110
10110010100
100010111
1111111010101111
1010011111
101001000
1000100110
1000111001
10010101001
1111111
11010101001
1111001010
11010000001
1110011011
1110000100
1001110001
101110010
1111111111010100
1010101011
1111111111011110
1111111010111110
11101100
10010001
101
1011000100
1111110100101111
1010000100
1011001
111010110
1111111101010010
1111111100101100
1000110001
1111111110010101
11111110111
10111110101
10010111011
1010100110
1011000101
1011011011
111110110
100110011
111001101
11101000
1111111010001001
1101000110
1111110000
11001101
1111111111001110
1111111110100011
10010011000
1111110100001101
1111110011101101
1111111110110101
1111111011100011
1111110101100100
1111110011110011
1111
1111111010000010
1110010
1000100100
1001010000
10110010
0
1111111010100111
1000
1111110111101000
1111111100100010
101101001
1111111101010110
1111111111011010
1111111010100000
1010001011
1111110110
111001111
1110010101
1111111010101101
1110001000
1111110001111011
10010110011
1111110000110011
1111111100010110
10011010011
1100110110
1111110101000100
1111110100001111
1001110100
100111011
1111110010101101
1111110111010011
1111111000111110
111000000
1111111101001110
1111111000110101
1111111110111000
1111111101111001
11111001
1111110101101110
10101001
1111110110101010
111001010
1111111010111100
1111110110110110
1111111001001110
110101101
110111101
1101110101
1111111110111100
11110111
1111111101000001
1111110101100110
1111111010000011
1111101111111101
10110111
111110
1111110100100000
100001010
1111111010110111
1111111001100100
1111101011111101
1111111001000010
1111110100011111
110000000
101000111
1111111010011111
1111101100011111
1111111110100010
1111110000110100
1111110101110110
10100100
11000100
1111110001011001
1111101010011100
1111111110001010
101010100
1001001111
1111111101101111
1111111011100110
1111110111010110
1111111111010001
100111001
1111111110110000
1111110111001011
1111110010011011
1111110110010101
1111101011000011
1111101000111110
1111110100000100
1111111110011111
1111110111100100
1111111000001101
110101111
1111111111000001
1111110100111101
1111111100000100
1111101100010100
1111101111010100
1111101011100001
1111101011101100
1111110001101000
1111101011110001
1111110000110111
1111110110100010
1111111011111001
1111111111001001
100
1100111010
1111110110110100
1111111110001011
1111111000010001
1010001001
1111101111101001
1111110101110101
1111110101111010
1111110000110111
1111110010100101
110000111
1011110
1111110110000101
10010100
111011101
1111110011101100
1111110001101010
1111101111011010
1111101001110010
1111111000000101
1111110011111000
1111100110101000
1111100110111001
1111111011001001
1111111001110101
1111111011111101
10111111
1111111111001011
11000
1111111110101100
1111110110110100
1111110110111100
1111111111001000
1111111010100001
101011010
1111110011101101
11011
1111110100100101
1111110111101110
1111110001001010
1111111001001001
1111110111100001
1001011
1111110100101011
1111110111111111
100010
1111110000011001
1111110110110100
1111111000001101
1111101111100000
1111100111101101
100001
1111110000011011
1011101000
1111111111001101
1111111010101111
1111111010001001
1111111000000101
1111111101100011
110101010
1111101111011011
1001010
110000
101111110
1111110011101000
1111101100001010
1111110000100101
1111101000010001
1111110000000111
1111111011000000
100000110
1111111010101100
1111111101000000
1111111110000100
1111111010001000
1111111010001101
1111110111100010
1111111100000111
1111101111111101
1111111010010101
1111110110100001
1000000110
1111101100000010
1111111101111001
10101010
1111111001010111
1111110001100110
1111111100111001
1111101100000000
1111110010101000
1111101010111011
1111101010100010
1111101110111101
1111100011111100
1111101010100111
1111110011100101
1111111100111000
1111111010101111
1111111100101000
1000
1111111011011011
1111111011010011
1111111101010001
1111111101110000
101001011
1110000
1111110110101111
1000101110
1011001111
10110001
1111110111110100
1111110111101110
100100
1001011101
1111101111011101
10101110
100110101
101111010
1111101101111100
1111100011011001
1111101110000101
1111101011001100
1111100100110111
1111110101010100
1000001001
10000001110
110101111
11100110
101101
10001001010
1111111101100101
10010
1111111101000111
1111110010001001
1000011110
11111010
1111111111101001
1111111001111110
10000
1110011
10001100
1011001110
1111111010010011
10110100
1111111010110110
1111101110010100
1111111110010100
1111111010110111
1010000100
1111111111000100
110010011
1111111100011001
11000100111
1100001010
1111111110011010
1011000
1111111000101000
1111111011010000
1111110100110010
1111110100000011
1111111011110001
1111111001101110
1010001011
100111010
1111111110011101
110110110
1111111101000110
101111101
10100
100010011
1001110
1111110110100101
1111110110000100
10111100
1001000000
1111111111111100
100000010
1111110100110000
110100010
1101100111
110111111
1111111010
1111110000111100
1111111001111000
1111111000011010
1111110101100010
1011000
1111111110111101
1111111001100000
1111111100111001
1111111101110011
1111110110000011
1111111100100101
1101010110
1111111001010101
101111110
1100110010
1110100111
111111001
100111011
11101
1111000110
1000011
1111111001011101
1111101110101100
100110
10100011
110010101
101111100
10110001101
1000000101
11011101
10001010
1111111001000100
1000011110
1001110010
1111111100000111
1000010
101000101
1001011001
111001
1111110110011101
1111110010111000
100101110
10000011
1101110100
1011001111
100100100
10011000110
1111110110001100
1001110111
1111111111100101
110011110
110110
11111
1010000001
1111111111100110
1010110000
101110
111111010
1111111110001000
1111111000000001
110111111
10001
10011001111
1011100000
100111111
1001111010
1111110100110111
1111111111101011
100010001
11000101010
110110
110101
11100111
1111111100010011
101101111
1110010
101010001
111000010
110011
1101100000
1111111110110111
10100010000
1101011001
10001100011
1010101000
1001011110
1111111101111011
110101111
1011011000
1000110000
111101101
10001011010
11101111111
110101111
11001000
1111111100101010
1111111111101011
1111100010
1111110000111101
1111111101100010
1111111100001010
1000101101
10000100010
110110
1011111001
1011101011
10100100101
10000111100
10000111000
1101010001
110001
1111010001
10110001111
1000001100
11101011
10010100
10110110
1000001101
110000010
100010010
10000000011
10101000
111111101
1111111110010011
101100101
110001011
1111111011010010
111101100
1000011010
1011101011
1001110011
100101101
1000110101
1000111011
10000100111
11001111111
1101111011
11000001000
10011111101
10101111111
110010101
1010101000
10100100000
1101100010
1101101111
1010000001
1111110010110100
111011
1111001100
1111111111111111
1111111101110111
111111111
1111111011010100
1000000000
1111111110011011
10000010010
1111110100001001
10011000010
1111111101011100
100001100
1000000001
1111111111110111
110
10000010110
10001110000
11010111
1011110000
1100101000
1110100001
11101010
100100110
10110000000
100010001
1111111100111000
1111110111110101
1111111010110111
1101010
1111110011000111
100111001
1111110001101101
1111110010100100
1011101100
1111111011111000
1111110111101111
10000001001
100011110
11101110
101110000
1111111110010101
1111110111001001
1111111000110000
1110000
1111110011010010
1111110011001000
1111101000101101
1111110101110111
1111110101101110
1111111101101111
1111110111010010
1111111101110110
1111111111001001
1010111
1111111001000001
1111101111010110
1111111110110111
1111111011100000
1111111110100110
1111111001110110
1111111101000000
1110111011
1111101111011100
1111111101011110
1111111000110000
10100001100
1111111111110000
1111110110100100
1100011100
1111110101001110
1111101110111000
1111100111110111
1111010111110001
1111100101100010
1111101110011110
1111101000000111
1111110010100111
1111101010110101
1111110101110111
110001010
110000111
1111111101111100
1010110
1111111001110100
1111111100111110
100110001
1011110
10111010
1111111111100010
1111111101100011
1111110010101000
1001000111
1000011000
1111111011010111
1110110100
111110001
1111111110011111
1111111101001011
1111110001001000
1111111001101010
1111101111111000
1111110010001101
1111101111001111
1111101010000011
1111100101010101
1111101001000111
1111110100100100
1111110001000101
1111110110100101
1111110011110110
1111101010010011
101011000
1111110001111101
11110101
1111110100000100
1111111001110001
1111111111110011
1111111011011111
100000
110010011
1010100110
100010011
1111111000101000
1111111001101001
1111111011001001
1111110010110000
1111101010000111
1111101111100110
1111110010110011
1111110000100100
1111111110011011
1111110101101011
1111110111101100
1111111010110101
1111111100101110
1100000
1111111101101100
1100111111
1000100
1111111101111110
100000011
1111111111001110
10010101101
11000101
1111110110001011
110110101
1111101111001000
1111110101000101
1111110101000001
111010000
110110001
1101100101
1111111100100101
1111111011101110
1111110100010000
110000011
100100110
1111111111101110
10011001
1111111111111011
1111111011011000
1111111100110100
1111110100001110
1111111110010101
1111111111101011
1111111001010101
11110010
10010101
1111111011101100
1111111011000001
1111111111101010
1111111101111111
1111110111100011
1111111111110100
10101001
1111101110011001
10
1110000111
10001000
1011011
1111111100101010
1111111000001101
1111111000111011
1111111101110111
1011110001
1111110100110000
1111111100011110
10001111
1001101011
1111111011000110
1111110100111100
1111111000001101
1111111101100111
1100011011
1000101110
1100011100
111001010
1010001001
1100100010
1111111010100010
100100001
